{
  "version": "1.0",
  "truncation": null,
  "padding": null,
  "added_tokens": [
    {
      "id": 0,
      "content": "<pad>",
      "single_word": false,
      "lstrip": false,
      "rstrip": false,
      "normalized": false,
      "special": true
    },
    {
      "id": 1,
      "content": "<unk>",
      "single_word": false,
      "lstrip": false,
      "rstrip": false,
      "normalized": false,
      "special": true
    },
    {
      "id": 2,
      "content": "<bos>",
      "single_word": false,
      "lstrip": false,
      "rstrip": false,
      "normalized": false,
      "special": true
    },
    {
      "id": 3,
      "content": "<eos>",
      "single_word": false,
      "lstrip": false,
      "rstrip": false,
      "normalized": false,
      "special": true
    }
  ],
  "normalizer": null,
  "pre_tokenizer": {
    "type": "ByteLevel",
    "add_prefix_space": false,
    "trim_offsets": true,
    "use_regex": true
  },
  "post_processor": null,
  "decoder": null,
  "model": {
    "type": "BPE",
    "dropout": null,
    "unk_token": "<unk>",
    "continuing_subword_prefix": null,
    "end_of_word_suffix": null,
    "fuse_unk": false,
    "byte_fallback": false,
    "ignore_merges": false,
    "vocab": {
      "<pad>": 0,
      "<unk>": 1,
      "<bos>": 2,
      "<eos>": 3,
      "!": 4,
      "$": 5,
      "&": 6,
      "'": 7,
      ",": 8,
      "-": 9,
      ".": 10,
      "3": 11,
      ":": 12,
      ";": 13,
      "?": 14,
      "A": 15,
      "B": 16,
      "C": 17,
      "D": 18,
      "E": 19,
      "F": 20,
      "G": 21,
      "H": 22,
      "I": 23,
      "J": 24,
      "K": 25,
      "L": 26,
      "M": 27,
      "N": 28,
      "O": 29,
      "P": 30,
      "Q": 31,
      "R": 32,
      "S": 33,
      "T": 34,
      "U": 35,
      "V": 36,
      "W": 37,
      "X": 38,
      "Y": 39,
      "Z": 40,
      "a": 41,
      "b": 42,
      "c": 43,
      "d": 44,
      "e": 45,
      "f": 46,
      "g": 47,
      "h": 48,
      "i": 49,
      "j": 50,
      "k": 51,
      "l": 52,
      "m": 53,
      "n": 54,
      "o": 55,
      "p": 56,
      "q": 57,
      "r": 58,
      "s": 59,
      "t": 60,
      "u": 61,
      "v": 62,
      "w": 63,
      "x": 64,
      "y": 65,
      "z": 66,
      "Ċ": 67,
      "Ġ": 68,
      "Ġt": 69,
      "he": 70,
      "Ġa": 71,
      "ou": 72,
      "Ġs": 73,
      "Ġm": 74,
      "in": 75,
      "Ġw": 76,
      "re": 77,
      "ha": 78,
      "nd": 79,
      "Ġthe": 80,
      "Ġb": 81,
      "is": 82,
      "or": 83,
      "Ġf": 84,
      "er": 85,
      "ll": 86,
      "it": 87,
      "on": 88,
      "Ġd": 89,
      "Ġc": 90,
      "es": 91,
      "en": 92,
      "Ġn": 93,
      "Ġl": 94,
      "Ġy": 95,
      "Ġth": 96,
      "ar": 97,
      "Ġh": 98,
      "Ġo": 99,
      "Ġto": 100,
      "Ġyou": 101,
      "Ġp": 102,
      "hat": 103,
      "ĠI": 104,
      "Ġhe": 105,
      "ve": 106,
      "ot": 107,
      "st": 108,
      "Ġand": 109,
      "ow": 110,
      "ing": 111,
      "an": 112,
      "Ġof": 113,
      "om": 114,
      "Ġg": 115,
      "at": 116,
      "Ġbe": 117,
      "se": 118,
      "Ġmy": 119,
      "Ġin": 120,
      "ce": 121,
      "Ġha": 122,
      "le": 123,
      "ay": 124,
      "ld": 125,
      "ir": 126,
      "et": 127,
      "ed": 128,
      "ut": 129,
      "Ġme": 130,
      "im": 131,
      "ith": 132,
      "'s": 133,
      "Ġnot": 134,
      "ch": 135,
      "Ġthat": 136,
      "Ġis": 137,
      "gh": 138,
      "And": 139,
      "Ġfor": 140,
      "ke": 141,
      "Ġu": 142,
      "our": 143,
      "Ġwe": 144,
      "oo": 145,
      "ill": 146,
      "Ġe": 147,
      "her": 148,
      "Ġwith": 149,
      "ent": 150,
      "Ġit": 151,
      "Ġyour": 152,
      "ad": 153,
      "ri": 154,
      "Ġthou": 155,
      "Ġst": 156,
      "'d": 157,
      "Ġk": 158,
      "ome": 159,
      "Ġhis": 160,
      "ght": 161,
      "EN": 162,
      "ord": 163,
      "id": 164,
      "The": 165,
      "as": 166,
      "Ġre": 167,
      "Ġhave": 168,
      "IN": 169,
      "ly": 170,
      "ra": 171,
      "Ġli": 172,
      "Ġhim": 173,
      "ur": 174,
      "Ġthis": 175,
      "al": 176,
      "IO": 177,
      "Ġso": 178,
      "Ġas": 179,
      "Ġde": 180,
      "Ġon": 181,
      "ore": 182,
      "ro": 183,
      "AR": 184,
      "hi": 185,
      "ould": 186,
      "ood": 187,
      "ck": 188,
      "ain": 189,
      "ver": 190,
      "est": 191,
      "Ġthy": 192,
      "Ġsha": 193,
      "ess": 194,
      "ea": 195,
      "Ġdo": 196,
      "Ġwill": 197,
      "am": 198,
      "Ġno": 199,
      "Ġbut": 200,
      "us": 201,
      "and": 202,
      "US": 203,
      "if": 204,
      "Ġse": 205,
      "ge": 206,
      "Th": 207,
      "Ġall": 208,
      "ake": 209,
      "Ġsu": 210,
      "To": 211,
      "Ġher": 212,
      "ru": 213,
      "ion": 214,
      "th": 215,
      "Ġan": 216,
      "ter": 217,
      "ard": 218,
      "Ġlo": 219,
      "han": 220,
      "ell": 221,
      "ear": 222,
      "Ġsp": 223,
      "Ġthee": 224,
      "Ġour": 225,
      "Ġfa": 226,
      "Ġshall": 227,
      "Ġby": 228,
      "UC": 229,
      "il": 230,
      "Ġare": 231,
      "ING": 232,
      "ĠC": 233,
      "rom": 234,
      "Ġne": 235,
      "ho": 236,
      "Ġkn": 237,
      "AN": 238,
      "ĠR": 239,
      "That": 240,
      "Ġv": 241,
      "ER": 242,
      "OR": 243,
      "ast": 244,
      "ct": 245,
      "ous": 246,
      "Ġwhat": 247,
      "ight": 248,
      "Ġsh": 249,
      "ul": 250,
      "ET": 251,
      "Ġ'": 252,
      "ant": 253,
      "ES": 254,
      "Ġup": 255,
      "sel": 256,
      "qu": 257,
      "But": 258,
      "art": 259,
      "Ġgood": 260,
      "row": 261,
      "ine": 262,
      "ath": 263,
      "Ġlord": 264,
      "hich": 265,
      "nt": 266,
      "ust": 267,
      "'ll": 268,
      "one": 269,
      "Ġpr": 270,
      "Ġcom": 271,
      "Ġat": 272,
      "Ġman": 273,
      "What": 274,
      "ĠM": 275,
      "Ġwhe": 276,
      "ĠE": 277,
      "KING": 278,
      "Ġam": 279,
      "end": 280,
      "ic": 281,
      "Ġcon": 282,
      "ble": 283,
      "ry": 284,
      "ong": 285,
      "ie": 286,
      "ive": 287,
      "Ġbl": 288,
      "Ġfrom": 289,
      "ven": 290,
      "ĠG": 291,
      "For": 292,
      "Ġshe": 293,
      "em": 294,
      "Ġgo": 295,
      "are": 296,
      "Ġmore": 297,
      "IC": 298,
      "out": 299,
      "Ġthem": 300,
      "au": 301,
      "Ġwas": 302,
      "oth": 303,
      "other": 304,
      "He": 305,
      "Ġsir": 306,
      "ol": 307,
      "Ġnow": 308,
      "ĠL": 309,
      "Ġhat": 310,
      "ost": 311,
      "Ġif": 312,
      "LO": 313,
      "ind": 314,
      "Ġthere": 315,
      "Ġwould": 316,
      "Ġknow": 317,
      "Ġcan": 318,
      "ers": 319,
      "IUS": 320,
      "ep": 321,
      "self": 322,
      "ARD": 323,
      "ather": 324,
      "fe": 325,
      "ond": 326,
      "res": 327,
      "ate": 328,
      "Ġsay": 329,
      "Ġhere": 330,
      "Ġlove": 331,
      "Ġsw": 332,
      "Ġtheir": 333,
      "Ġbr": 334,
      "pp": 335,
      "Ġor": 336,
      "--": 337,
      "all": 338,
      "ĠS": 339,
      "Ġthan": 340,
      "Ġthen": 341,
      "Ġking": 342,
      "Ġus": 343,
      "ĠO": 344,
      "ĠB": 345,
      "Ġthey": 346,
      "Ġar": 347,
      "od": 348,
      "My": 349,
      "Ġlet": 350,
      "Ġun": 351,
      "ig": 352,
      "Ġwor": 353,
      "ure": 354,
      "ink": 355,
      "ĠH": 356,
      "ort": 357,
      "hy": 358,
      "ĠV": 359,
      "ame": 360,
      "fore": 361,
      "As": 362,
      "Ġmay": 363,
      "el": 364,
      "Ġqu": 365,
      "Ġcome": 366,
      "ook": 367,
      "Whe": 368,
      "ish": 369,
      "LI": 370,
      "Ġwell": 371,
      "KE": 372,
      "ves": 373,
      "Ġj": 374,
      "Ġone": 375,
      "Ġhath": 376,
      "irst": 377,
      "You": 378,
      "Ġmake": 379,
      "reat": 380,
      "ak": 381,
      "gain": 382,
      "Ġmust": 383,
      "ound": 384,
      "ng": 385,
      "Ġgra": 386,
      "Ġwere": 387,
      "Ġho": 388,
      "ci": 389,
      "Ġsee": 390,
      "Ġlike": 391,
      "ue": 392,
      "eak": 393,
      "TIO": 394,
      "Ġshould": 395,
      "ity": 396,
      "Ġpro": 397,
      "ĠP": 398,
      "Ġsa": 399,
      "Ġmad": 400,
      "um": 401,
      "Ġpl": 402,
      "Ġfather": 403,
      "RO": 404,
      "AU": 405,
      "Ġhad": 406,
      "Ġdid": 407,
      "pe": 408,
      "ime": 409,
      "Ġupon": 410,
      "ice": 411,
      "ON": 412,
      "Ġtoo": 413,
      "ence": 414,
      "ĠW": 415,
      "ward": 416,
      "ist": 417,
      "Ġdeath": 418,
      "own": 419,
      "man": 420,
      "ose": 421,
      "Ġen": 422,
      "un": 423,
      "IS": 424,
      "ful": 425,
      "nce": 426,
      "Ġr": 427,
      "Ġpo": 428,
      "Ġspeak": 429,
      "de": 430,
      "entle": 431,
      "io": 432,
      "Ġout": 433,
      "pt": 434,
      "Ġwhich": 435,
      "ICH": 436,
      "Ġfri": 437,
      "OL": 438,
      "DU": 439,
      "Ġagain": 440,
      "DUKE": 441,
      "Ġhow": 442,
      "EL": 443,
      "ick": 444,
      "ĠA": 445,
      "Ġtru": 446,
      "Ġheart": 447,
      "Ġyet": 448,
      "Ġhand": 449,
      "CA": 450,
      "Thou": 451,
      "very": 452,
      "ICHARD": 453,
      "ENTIO": 454,
      "With": 455,
      "ign": 456,
      "Ġsome": 457,
      "ance": 458,
      "Ġwho": 459,
      "Which": 460,
      "If": 461,
      "Ġwhen": 462,
      "ies": 463,
      "Ġmar": 464,
      "ire": 465,
      "Ġmine": 466,
      "Ġhon": 467,
      "har": 468,
      "orn": 469,
      "Ġoff": 470,
      "ince": 471,
      "INC": 472,
      "In": 473,
      "ack": 474,
      "ĠY": 475,
      "Ġson": 476,
      "Ġdis": 477,
      "Ġal": 478,
      "'t": 479,
      "We": 480,
      "uch": 481,
      "wn": 482,
      "Ġhea": 483,
      "First": 484,
      "oy": 485,
      "Ġtime": 486,
      "Ġhear": 487,
      "AB": 488,
      "ec": 489,
      "Ġsuch": 490,
      "ness": 491,
      "LA": 492,
      "Ġbrother": 493,
      "Of": 494,
      "Ġblood": 495,
      "ither": 496,
      "Ġab": 497,
      "UE": 498,
      "Why": 499,
      "Ġthese": 500,
      "No": 501,
      "Ġgive": 502,
      "Ġfo": 503,
      "Ġday": 504,
      "ĠII": 505,
      "Ġear": 506,
      "ĠRICHARD": 507,
      "TER": 508,
      "Ġro": 509,
      "ise": 510,
      "Ġex": 511,
      "Ġlife": 512,
      "This": 513,
      "eet": 514,
      "Ġtell": 515,
      "So": 516,
      "Ġlook": 517,
      "Ġthink": 518,
      "UCH": 519,
      "oul": 520,
      "Ġword": 521,
      "Ġey": 522,
      "Ġwhere": 523,
      "ag": 524,
      "age": 525,
      "een": 526,
      "ther": 527,
      "GLO": 528,
      "Ġtake": 529,
      "UCES": 530,
      "Ġfriend": 531,
      "GLOUCES": 532,
      "GLOUCESTER": 533,
      "ef": 534,
      "erv": 535,
      "ady": 536,
      "rown": 537,
      "Ġdes": 538,
      "ings": 539,
      "ave": 540,
      "not": 541,
      "Ġgentle": 542,
      "urse": 543,
      "How": 544,
      "RY": 545,
      "Ġri": 546,
      "ase": 547,
      "QUE": 548,
      "way": 549,
      "INCENTIO": 550,
      "QUEEN": 551,
      "Ġlea": 552,
      "tis": 553,
      "ĠOF": 554,
      "Ġart": 555,
      "Ġmost": 556,
      "Where": 557,
      "Ġhonour": 558,
      "LAN": 559,
      "Ġmuch": 560,
      "Ġsl": 561,
      "Ġwar": 562,
      "Ġfl": 563,
      "urn": 564,
      "Ġmade": 565,
      "ment": 566,
      "Now": 567,
      "Ġhast": 568,
      "Ġtw": 569,
      "Ġfear": 570,
      "ĠT": 571,
      "Ġbet": 572,
      "ENRY": 573,
      "aught": 574,
      "Is": 575,
      "LE": 576,
      "ber": 577,
      "ff": 578,
      "ĠGod": 579,
      "ough": 580,
      "ved": 581,
      "Ġbre": 582,
      "cc": 583,
      "ower": 584,
      "Ġnever": 585,
      "ĠVINCENTIO": 586,
      "Be": 587,
      "ap": 588,
      "igh": 589,
      "ĠK": 590,
      "Ġgreat": 591,
      "Ġfair": 592,
      "Who": 593,
      "ee": 594,
      "tle": 595,
      "Ġmen": 596,
      "orrow": 597,
      "Ġcou": 598,
      "Ġnew": 599,
      "ĠRome": 600,
      "aster": 601,
      "uke": 602,
      "iz": 603,
      "old": 604,
      "ORK": 605,
      "Ġpart": 606,
      "ation": 607,
      "INIUS": 608,
      "ss": 609,
      "ree": 610,
      "ide": 611,
      "Or": 612,
      "Ġcall": 613,
      "ple": 614,
      "Ġany": 615,
      "Ġheaven": 616,
      "Ġad": 617,
      "Ġcomm": 618,
      "It": 619,
      "Your": 620,
      "Ġstand": 621,
      "Ġcannot": 622,
      "Ġtrue": 623,
      "DW": 624,
      "Ġname": 625,
      "Ġbeen": 626,
      "ears": 627,
      "DWARD": 628,
      "Ġcl": 629,
      "Ġpre": 630,
      "Ġsweet": 631,
      ",--": 632,
      "Ġdoth": 633,
      "Ġpray": 634,
      "hing": 635,
      "PET": 636,
      "UM": 637,
      "Ġnoble": 638,
      "LUC": 639,
      "MEN": 640,
      "TH": 641,
      "Ġown": 642,
      "Ġple": 643,
      "ass": 644,
      "ĠD": 645,
      "ouse": 646,
      "Ġper": 647,
      "Ay": 648,
      "Come": 649,
      "ull": 650,
      "There": 651,
      "Ġwr": 652,
      "Ġdone": 653,
      "ife": 654,
      "aw": 655,
      "Ġtr": 656,
      "Ġway": 657,
      "Ġother": 658,
      "Ġhead": 659,
      "Ġmean": 660,
      "li": 661,
      "red": 662,
      "When": 663,
      "dward": 664,
      "Ġnor": 665,
      "EO": 666,
      "MEO": 667,
      "Ġsc": 668,
      "Ġsoul": 669,
      "Ġpres": 670,
      "ROMEO": 671,
      "ace": 672,
      "ving": 673,
      "Ġnight": 674,
      "Ġbear": 675,
      "ENIUS": 676,
      "aint": 677,
      "ĠCl": 678,
      "Ġworld": 679,
      "MENENIUS": 680,
      "ger": 681,
      "Ġbefore": 682,
      "ause": 683,
      "Ġboth": 684,
      "Ġqueen": 685,
      "per": 686,
      "Then": 687,
      "aughter": 688,
      "RUCH": 689,
      "ock": 690,
      "Ġchi": 691,
      "Here": 692,
      "PETRUCH": 693,
      "PETRUCHIO": 694,
      "OM": 695,
      "able": 696,
      "Ġvery": 697,
      "Ġdead": 698,
      "TES": 699,
      "By": 700,
      "Ġra": 701,
      "ite": 702,
      "Than": 703,
      "the": 704,
      "Ġke": 705,
      "ab": 706,
      "les": 707,
      "ĠF": 708,
      "Ġdown": 709,
      "to": 710,
      "Ġapp": 711,
      "Ġmyself": 712,
      "Ġcont": 713,
      "GR": 714,
      "HA": 715,
      "Ġwh": 716,
      "Ġrem": 717,
      "ĠLord": 718,
      "Ġarm": 719,
      "Ġthus": 720,
      "IOLAN": 721,
      "ilt": 722,
      "ORIOLAN": 723,
      "ORIOLANUS": 724,
      "CORIOLANUS": 725,
      "Sec": 726,
      "Ġleave": 727,
      "Second": 728,
      "Ġbeing": 729,
      "ction": 730,
      "ĠEdward": 731,
      "Nor": 732,
      "sw": 733,
      "Ġunt": 734,
      "ress": 735,
      "Ġgrace": 736,
      "less": 737,
      "Ġbeg": 738,
      "Ġeyes": 739,
      "BA": 740,
      "land": 741,
      "Ġmother": 742,
      "ran": 743,
      "Ġma": 744,
      "Ġold": 745,
      "Ġim": 746,
      "INA": 747,
      "ĠEDWARD": 748,
      "itiz": 749,
      "itizen": 750,
      "ps": 751,
      "Ġlong": 752,
      "Ġever": 753,
      "ĠMar": 754,
      "Ġlive": 755,
      "Ġchild": 756,
      "Let": 757,
      "me": 758,
      "Ġwife": 759,
      "She": 760,
      "Ġaway": 761,
      "Ġrep": 762,
      "ĠIII": 763,
      "Ġwom": 764,
      "Ġpoor": 765,
      "Ġfriends": 766,
      "come": 767,
      "for": 768,
      "wick": 769,
      "Ġaf": 770,
      "Ġmight": 771,
      "nder": 772,
      "Ġstay": 773,
      "eace": 774,
      "ks": 775,
      "oud": 776,
      "Ġdie": 777,
      "atch": 778,
      "led": 779,
      "ĠJ": 780,
      "Ġru": 781,
      "arwick": 782,
      "Ġcomes": 783,
      "Ġcons": 784,
      "Ġcrown": 785,
      "ows": 786,
      "Ġmany": 787,
      "Ġpe": 788,
      "Tis": 789,
      "hall": 790,
      "ison": 791,
      "Ġle": 792,
      "ĠYORK": 793,
      "lo": 794,
      "uck": 795,
      "iss": 796,
      "Ġhouse": 797,
      "Ġhar": 798,
      "Ġthought": 799,
      "Ġrest": 800,
      "ISAB": 801,
      "ELLA": 802,
      "ISABELLA": 803,
      "ian": 804,
      "erc": 805,
      "Ġcour": 806,
      "RAN": 807,
      "Ġent": 808,
      "Ġlie": 809,
      "che": 810,
      "Ġset": 811,
      "JU": 812,
      "well": 813,
      "ors": 814,
      "atter": 815,
      "LIET": 816,
      "ONTES": 817,
      "ĠWarwick": 818,
      "LEONTES": 819,
      "JULIET": 820,
      "Nay": 821,
      "int": 822,
      "ittle": 823,
      "Ġdaughter": 824,
      "Ġgone": 825,
      "Ġbetter": 826,
      "MI": 827,
      "rant": 828,
      "ought": 829,
      "Ġprince": 830,
      "DY": 831,
      "His": 832,
      "Ġtong": 833,
      "Ġwit": 834,
      "Ġnothing": 835,
      "CE": 836,
      "VOL": 837,
      "ENCE": 838,
      "LADY": 839,
      "BR": 840,
      "TA": 841,
      "cl": 842,
      "ied": 843,
      "Ġkeep": 844,
      "Go": 845,
      "Well": 846,
      "ces": 847,
      "ious": 848,
      "os": 849,
      "Ġsle": 850,
      "Ġres": 851,
      "hard": 852,
      "Ġnews": 853,
      "SIC": 854,
      "ft": 855,
      "ier": 856,
      "Ġtri": 857,
      "Ġmo": 858,
      "ret": 859,
      "ont": 860,
      "Ġthose": 861,
      "Ġgri": 862,
      "ool": 863,
      "une": 864,
      "SICINIUS": 865,
      "Not": 866,
      "Ġlittle": 867,
      "Ġlords": 868,
      "Ġagainst": 869,
      "ford": 870,
      "Ġbest": 871,
      "Ġhour": 872,
      "Ġhence": 873,
      "ardon": 874,
      "akes": 875,
      "lse": 876,
      "Ġacc": 877,
      "sed": 878,
      "Ġface": 879,
      "ult": 880,
      "Ġfoll": 881,
      "On": 882,
      "ew": 883,
      "ud": 884,
      "ark": 885,
      "Ġyoung": 886,
      "Ġend": 887,
      "ork": 888,
      "Ġthing": 889,
      "Ġstill": 890,
      "Ġkind": 891,
      "ield": 892,
      "ST": 893,
      "Ġpri": 894,
      "Ġpur": 895,
      "alk": 896,
      "Thy": 897,
      "Ġcomp": 898,
      "LUCIO": 899,
      "ale": 900,
      "ins": 901,
      "ert": 902,
      "Ġput": 903,
      "Ġpower": 904,
      "ĠIV": 905,
      "ichard": 906,
      "Ġtwo": 907,
      "Ġcha": 908,
      "Ġhimself": 909,
      "Pro": 910,
      "iness": 911,
      "Ġfirst": 912,
      "Ġpeace": 913,
      "Ġgu": 914,
      "Ġelse": 915,
      "ried": 916,
      "Ġdear": 917,
      "cious": 918,
      "Sir": 919,
      "ail": 920,
      "ty": 921,
      "ason": 922,
      "hile": 923,
      "Ġsub": 924,
      "Ġunto": 925,
      "ile": 926,
      "ray": 927,
      "Ġtill": 928,
      "Ġsm": 929,
      "uty": 930,
      "RI": 931,
      "ZAB": 932,
      "ect": 933,
      "Ġtra": 934,
      "Ġbid": 935,
      "Ġback": 936,
      "Ġdre": 937,
      "Ġhus": 938,
      "ETH": 939,
      "ĠELI": 940,
      "Ġtherefore": 941,
      "Ġearth": 942,
      "Ġwords": 943,
      "Ġcount": 944,
      "ZABETH": 945,
      "ĠELIZABETH": 946,
      "Have": 947,
      "band": 948,
      "ius": 949,
      "men": 950,
      "ople": 951,
      "yal": 952,
      "Ġfind": 953,
      "Ġcould": 954,
      "Ġtongue": 955,
      "orse": 956,
      "Ġlady": 957,
      "Ġthine": 958,
      "Ġneed": 959,
      "ĠYork": 960,
      "HENRY": 961,
      "get": 962,
      "tw": 963,
      "Ġtre": 964,
      "Ġfell": 965,
      "enry": 966,
      "Ġhigh": 967,
      "Ġforth": 968,
      "Ġhope": 969,
      "MER": 970,
      "St": 971,
      "lp": 972,
      "Ġhome": 973,
      "vere": 974,
      "eth": 975,
      "Ġseem": 976,
      "eech": 977,
      "ĠRomeo": 978,
      "Ġhusband": 979,
      "CL": 980,
      "Ġduke": 981,
      "Ġright": 982,
      "GE": 983,
      "WAR": 984,
      "WIC": 985,
      "fort": 986,
      "ĠWhat": 987,
      "rer": 988,
      "Ġban": 989,
      "uth": 990,
      "Ġthough": 991,
      "ĠVI": 992,
      "WARWIC": 993,
      "WARWICK": 994,
      "UT": 995,
      "ach": 996,
      "ix": 997,
      "Ġmind": 998,
      "Ġbra": 999,
      "ister": 1000,
      "Ġche": 1001,
      "Ġchar": 1002,
      "hip": 1003,
      "ĠHENRY": 1004,
      "Ġpeople": 1005,
      "Nurse": 1006,
      "ds": 1007,
      "ged": 1008,
      "ĠCitizen": 1009,
      "ren": 1010,
      "They": 1011,
      "ĠHenry": 1012,
      "HAM": 1013,
      "IAN": 1014,
      "LET": 1015,
      "PU": 1016,
      "eed": 1017,
      "Ġbri": 1018,
      "Ġchan": 1019,
      "Ġlaw": 1020,
      "ĠRichard": 1021,
      "Ġshow": 1022,
      "Ġconf": 1023,
      "Ġhands": 1024,
      "PULET": 1025,
      "EY": 1026,
      "be": 1027,
      "Ġmaster": 1028,
      "Ġwhy": 1029,
      "Ġco": 1030,
      "Ġcause": 1031,
      "Ġgl": 1032,
      "Ġonce": 1033,
      "Ġsaid": 1034,
      "Ġimp": 1035,
      "Good": 1036,
      "MIO": 1037,
      "Shall": 1038,
      "Ġbod": 1039,
      "Ġnone": 1040,
      "ousin": 1041,
      "Ġjoy": 1042,
      "ervant": 1043,
      "All": 1044,
      "bt": 1045,
      "Ġfort": 1046,
      "Ġbring": 1047,
      "Yet": 1048,
      "Ġdou": 1049,
      "ates": 1050,
      "Ġevery": 1051,
      "UCKING": 1052,
      "BRUT": 1053,
      "UCKINGHAM": 1054,
      "BRUTUS": 1055,
      "BRO": 1056,
      "BUCKINGHAM": 1057,
      "From": 1058,
      "TRAN": 1059,
      "iet": 1060,
      "Ġmist": 1061,
      "Ġpass": 1062,
      "ird": 1063,
      "Ġlight": 1064,
      "INGBRO": 1065,
      "ESS": 1066,
      "ĠBOL": 1067,
      "TRANIO": 1068,
      "INGBROKE": 1069,
      "ĠBOLINGBROKE": 1070,
      "Do": 1071,
      "Will": 1072,
      "lt": 1073,
      "vost": 1074,
      "Ġwo": 1075,
      "Ġnat": 1076,
      "Ġthr": 1077,
      "Ġroyal": 1078,
      "swer": 1079,
      "PER": 1080,
      "TIS": 1081,
      "cle": 1082,
      "Ġtears": 1083,
      "its": 1084,
      "Ġcame": 1085,
      "ary": 1086,
      "ĠMAR": 1087,
      "Ġwhose": 1088,
      "Ġplease": 1089,
      "lf": 1090,
      "vy": 1091,
      "ory": 1092,
      "Ġpardon": 1093,
      "roke": 1094,
      "ĠAn": 1095,
      "Cl": 1096,
      "GAR": 1097,
      "NE": 1098,
      "pose": 1099,
      "Ġbes": 1100,
      "Ġboy": 1101,
      "Ġfull": 1102,
      "arry": 1103,
      "Ġheard": 1104,
      "Ġhapp": 1105,
      "Ġdev": 1106,
      "Ġjust": 1107,
      "Ġwrong": 1108,
      "Ġpresent": 1109,
      "ĠMARGAR": 1110,
      "ĠMARGARET": 1111,
      "ATH": 1112,
      "eel": 1113,
      "Ġsince": 1114,
      "Ġmis": 1115,
      "ens": 1116,
      "Ġland": 1117,
      "Ġlast": 1118,
      "Ġere": 1119,
      "Ġstate": 1120,
      "Ġplace": 1121,
      "MIL": 1122,
      "bl": 1123,
      "sand": 1124,
      "Ġmeet": 1125,
      "Ġunder": 1126,
      "Ġkill": 1127,
      "Ġafter": 1128,
      "HOR": 1129,
      "cent": 1130,
      "Ġsorrow": 1131,
      "ition": 1132,
      "Ġcare": 1133,
      "Ġthousand": 1134,
      "esty": 1135,
      "ANGE": 1136,
      "ORD": 1137,
      "Ġhold": 1138,
      "GRE": 1139,
      "ANGELO": 1140,
      "CU": 1141,
      "Our": 1142,
      "Ġhelp": 1143,
      "ARINA": 1144,
      "arence": 1145,
      "Ġwhom": 1146,
      "Ġfollow": 1147,
      "KATH": 1148,
      "day": 1149,
      "Ġfar": 1150,
      "Ġless": 1151,
      "Ġhither": 1152,
      "ceive": 1153,
      "irt": 1154,
      "Ġweep": 1155,
      "Ġshame": 1156,
      "selves": 1157,
      "cius": 1158,
      "Ġenem": 1159,
      "Ġabout": 1160,
      "Ġeye": 1161,
      "KATHARINA": 1162,
      "iol": 1163,
      "Ġfal": 1164,
      "Ġfool": 1165,
      "ons": 1166,
      "Ġpat": 1167,
      "urde": 1168,
      "Ġsun": 1169,
      "Ġanswer": 1170,
      "air": 1171,
      "Ġch": 1172,
      "asure": 1173,
      "Ġfall": 1174,
      "Ġmaid": 1175,
      "LUS": 1176,
      "Un": 1177,
      "Up": 1178,
      "ount": 1179,
      "Ġbus": 1180,
      "Ġcousin": 1181,
      "thy": 1182,
      "ESCA": 1183,
      "Ġhate": 1184,
      "Ġgracious": 1185,
      "Ġgentleman": 1186,
      "ĠKing": 1187,
      "Ġgrief": 1188,
      "ESCALUS": 1189,
      "An": 1190,
      "ject": 1191,
      "ove": 1192,
      "Ġmakes": 1193,
      "Ġinto": 1194,
      "imes": 1195,
      "Ġstri": 1196,
      "Hath": 1197,
      "iv": 1198,
      "ild": 1199,
      "Ġstre": 1200,
      "ĠEng": 1201,
      "Ġwoman": 1202,
      "DUCH": 1203,
      "Ġturn": 1204,
      "Ġhum": 1205,
      "Ġbel": 1206,
      "alt": 1207,
      "Ġdost": 1208,
      "Ġcomfort": 1209,
      "ices": 1210,
      "Ġcoun": 1211,
      "ĠDuke": 1212,
      "Ġcourt": 1213,
      "Ġsleep": 1214,
      "urderer": 1215,
      "DUCHESS": 1216,
      "Lord": 1217,
      "pher": 1218,
      "Ġtalk": 1219,
      "itor": 1220,
      "Ġover": 1221,
      "Ġbody": 1222,
      "morrow": 1223,
      "Ġwilt": 1224,
      "Ġbu": 1225,
      "Ġgr": 1226,
      "ute": 1227,
      "gelo": 1228,
      "deed": 1229,
      "ĠMarcius": 1230,
      "IA": 1231,
      "ience": 1232,
      "Ġi": 1233,
      "ised": 1234,
      "Ġbed": 1235,
      "Ġfault": 1236,
      "Ġatt": 1237,
      "ieve": 1238,
      "Ġprove": 1239,
      "Ġplay": 1240,
      "CAMIL": 1241,
      "ĠClarence": 1242,
      "CAMILLO": 1243,
      "God": 1244,
      "ere": 1245,
      "ily": 1246,
      "Ġsound": 1247,
      "Ġdra": 1248,
      "ans": 1249,
      "omet": 1250,
      "Ġinst": 1251,
      "Ġwel": 1252,
      "ade": 1253,
      "Ġret": 1254,
      "Ġdeed": 1255,
      "Ġthank": 1256,
      "TEN": 1257,
      "Ġser": 1258,
      "Ġbo": 1259,
      "Ġfight": 1260,
      "Ġindeed": 1261,
      "illain": 1262,
      "hold": 1263,
      "Ġvo": 1264,
      "Ġsword": 1265,
      "ĠAngelo": 1266,
      "HORTEN": 1267,
      "Ġfalse": 1268,
      "HORTENS": 1269,
      "FRI": 1270,
      "Sh": 1271,
      "Ġuse": 1272,
      "Ġeven": 1273,
      "Ġsovere": 1274,
      "Ġanother": 1275,
      "Ġgrave": 1276,
      "Ġadv": 1277,
      "Provost": 1278,
      "Ġfellow": 1279,
      "Upon": 1280,
      "HORTENSIO": 1281,
      "FRIAR": 1282,
      ",'": 1283,
      "PTIS": 1284,
      "eal": 1285,
      "Ġcur": 1286,
      "Ġhas": 1287,
      "Ġem": 1288,
      "ury": 1289,
      "pect": 1290,
      "BAPTIS": 1291,
      "Ġbanish": 1292,
      "Ġfortune": 1293,
      "BAPTISTA": 1294,
      "CUS": 1295,
      "COM": 1296,
      "TOL": 1297,
      "YCUS": 1298,
      "pl": 1299,
      "pen": 1300,
      "ouch": 1301,
      "Ġmerc": 1302,
      "Ġmatter": 1303,
      "Ġwant": 1304,
      "Ġreven": 1305,
      "Ġass": 1306,
      "Ġsend": 1307,
      "Ġprison": 1308,
      "fect": 1309,
      "AUTOL": 1310,
      "Ġrather": 1311,
      "Ġcountry": 1312,
      "Ġdoubt": 1313,
      "COMINIUS": 1314,
      "AUTOLYCUS": 1315,
      ".'": 1316,
      "Are": 1317,
      "Even": 1318,
      "More": 1319,
      "Ġwish": 1320,
      "Ġyears": 1321,
      "Ġreason": 1322,
      "Ġlies": 1323,
      "Ġonly": 1324,
      "ARENCE": 1325,
      "Third": 1326,
      "Ġvirt": 1327,
      "Ġtruth": 1328,
      "Would": 1329,
      "ior": 1330,
      "ms": 1331,
      "of": 1332,
      "rance": 1333,
      "ĠBut": 1334,
      "Ġdan": 1335,
      "Ġpers": 1336,
      "any": 1337,
      "Ġbreath": 1338,
      "Ġarms": 1339,
      "Ġdream": 1340,
      "CLARENCE": 1341,
      "pherd": 1342,
      "BEN": 1343,
      "MAR": 1344,
      "NOR": 1345,
      "dd": 1346,
      "der": 1347,
      "Ġsent": 1348,
      "ener": 1349,
      "Ġgi": 1350,
      "Ġstra": 1351,
      "Ġshalt": 1352,
      "Ġdisc": 1353,
      "VOLIO": 1354,
      "Clown": 1355,
      "Ġbusiness": 1356,
      "BENVOLIO": 1357,
      "Al": 1358,
      "At": 1359,
      "PRO": 1360,
      "SPER": 1361,
      "by": 1362,
      "hed": 1363,
      "Ġsen": 1364,
      "Ġprom": 1365,
      "Ġholy": 1366,
      "Ġenough": 1367,
      "erving": 1368,
      "Ġcommand": 1369,
      "UMIO": 1370,
      "GRUMIO": 1371,
      "PROSPER": 1372,
      "PROSPERO": 1373,
      "ia": 1374,
      "ken": 1375,
      "Ġsea": 1376,
      "Ġwind": 1377,
      "itt": 1378,
      "Ġcra": 1379,
      "Ġlay": 1380,
      "ars": 1381,
      "Ġpity": 1382,
      "ator": 1383,
      "Ġbea": 1384,
      "Ġhang": 1385,
      "Ġstran": 1386,
      "Ġsold": 1387,
      "Ġspir": 1388,
      "Ġfare": 1389,
      "Ġproud": 1390,
      "ĠMurderer": 1391,
      "Ġswear": 1392,
      "Ġcontent": 1393,
      "MERCU": 1394,
      "MERCUTIO": 1395,
      "ike": 1396,
      "Ġdare": 1397,
      "eter": 1398,
      "Ġlives": 1399,
      "Ġdep": 1400,
      "Ġsec": 1401,
      "Ġvillain": 1402,
      "gainst": 1403,
      "ĠKate": 1404,
      "LUCENTIO": 1405,
      "Ġremem": 1406,
      "Ġnature": 1407,
      "Ġwelcome": 1408,
      "POM": 1409,
      "Tw": 1410,
      "com": 1411,
      "unt": 1412,
      "Ġtend": 1413,
      "ham": 1414,
      "Ġfree": 1415,
      "Ġgre": 1416,
      "Ġget": 1417,
      "Ġint": 1418,
      "Ġwithin": 1419,
      "Ġkiss": 1420,
      "ester": 1421,
      "ĠCome": 1422,
      "Ġgods": 1423,
      "Ġsaw": 1424,
      "Ġmadam": 1425,
      "LAND": 1426,
      "Ġhappy": 1427,
      "Ġsovereign": 1428,
      "POMP": 1429,
      "LINA": 1430,
      "PAU": 1431,
      "apt": 1432,
      "Ġserv": 1433,
      "Ġsister": 1434,
      "Ġsomet": 1435,
      "hal": 1436,
      "Ġfoul": 1437,
      "Ġcity": 1438,
      "vers": 1439,
      "Were": 1440,
      "Ġbeseech": 1441,
      "PAULINA": 1442,
      "YORK": 1443,
      "ient": 1444,
      "use": 1445,
      "ery": 1446,
      "Ġden": 1447,
      "Ġyield": 1448,
      "Ġthree": 1449,
      "Ġoath": 1450,
      "Ġyours": 1451,
      "onder": 1452,
      "ague": 1453,
      "Ġbreak": 1454,
      "Ġmeans": 1455,
      "Ġsubject": 1456,
      "gether": 1457,
      "GREMIO": 1458,
      "POMPEY": 1459,
      "NIA": 1460,
      "OLI": 1461,
      "POLI": 1462,
      "XEN": 1463,
      "balt": 1464,
      "ybalt": 1465,
      "ĠNor": 1466,
      "Ġaw": 1467,
      "Ġmer": 1468,
      "Ġwhile": 1469,
      "Ġborn": 1470,
      "Ġthings": 1471,
      "Ġhorse": 1472,
      "anc": 1473,
      "usic": 1474,
      "ANT": 1475,
      "Ġbloody": 1476,
      "Ġlooks": 1477,
      "eft": 1478,
      "UMNIA": 1479,
      "like": 1480,
      "ches": 1481,
      "VOLUMNIA": 1482,
      "POLIXEN": 1483,
      "POLIXENES": 1484,
      "GON": 1485,
      "Her": 1486,
      "rong": 1487,
      "up": 1488,
      "ues": 1489,
      "Ġtem": 1490,
      "Ġwin": 1491,
      "Ġwound": 1492,
      "Ġfire": 1493,
      "enger": 1494,
      "Ġyourself": 1495,
      "Ġsupp": 1496,
      "Ġspo": 1497,
      "Ġfaith": 1498,
      "INGS": 1499,
      "ĠServing": 1500,
      "Ġmaj": 1501,
      "STINGS": 1502,
      "Ġtraitor": 1503,
      "centio": 1504,
      "ĠServingman": 1505,
      "RENCE": 1506,
      "Say": 1507,
      "bs": 1508,
      "broke": 1509,
      "rem": 1510,
      "Ġdru": 1511,
      "Ġlam": 1512,
      "essenger": 1513,
      "ĠLAU": 1514,
      "Ġmark": 1515,
      "Ġcommon": 1516,
      "HASTINGS": 1517,
      "Ġchildren": 1518,
      "ertain": 1519,
      "Ġmistress": 1520,
      "ĠLAURENCE": 1521,
      "BY": 1522,
      "BER": 1523,
      "Ġcond": 1524,
      "Ġbeat": 1525,
      "Ġrequ": 1526,
      "Ġdef": 1527,
      "Ġval": 1528,
      "Ġuncle": 1529,
      "Therefore": 1530,
      "form": 1531,
      "Ġmajesty": 1532,
      "CLI": 1533,
      "FF": 1534,
      "Look": 1535,
      "Was": 1536,
      "Ġaff": 1537,
      "Ġsin": 1538,
      "Ġmet": 1539,
      "Ġlate": 1540,
      "Ġleft": 1541,
      "Ġtold": 1542,
      "Ġsoon": 1543,
      "Ġseen": 1544,
      "Ġsave": 1545,
      "Ġdays": 1546,
      "UMBER": 1547,
      "THUMBER": 1548,
      "Ġwoe": 1549,
      "ĠEngland": 1550,
      "NORTHUMBER": 1551,
      "Ġtender": 1552,
      "CLIFF": 1553,
      "NORTHUMBERLAND": 1554,
      "ID": 1555,
      "Take": 1556,
      "bed": 1557,
      "ever": 1558,
      "ring": 1559,
      "ten": 1560,
      "Ġsight": 1561,
      "Ġmon": 1562,
      "Ġgener": 1563,
      "ides": 1564,
      "idow": 1565,
      "Ġdoes": 1566,
      "Though": 1567,
      "Ġreturn": 1568,
      "Ġmercy": 1569,
      "Ġfarewell": 1570,
      "ac": 1571,
      "dom": 1572,
      "mp": 1573,
      "ĠAN": 1574,
      "hes": 1575,
      "Ġsit": 1576,
      "Ġsad": 1577,
      "rel": 1578,
      "Ġdeep": 1579,
      "ters": 1580,
      "Ġgold": 1581,
      "unes": 1582,
      "Ġmarry": 1583,
      "Ġheavy": 1584,
      "Ġfoot": 1585,
      "Ġwarrant": 1586,
      "ĠJul": 1587,
      "Ġpurpose": 1588,
      "Ġthrough": 1589,
      "Ġdanger": 1590,
      "ĠANNE": 1591,
      "Ah": 1592,
      "Did": 1593,
      "Give": 1594,
      "PR": 1595,
      "aim": 1596,
      "ict": 1597,
      "mer": 1598,
      "so": 1599,
      "und": 1600,
      "vent": 1601,
      "Ġill": 1602,
      "Ġcho": 1603,
      "Ġcold": 1604,
      "Ġnurse": 1605,
      "Ġtogether": 1606,
      "Ġgrow": 1607,
      "ours": 1608,
      "ifford": 1609,
      "Ġsure": 1610,
      "earn": 1611,
      "CAPULET": 1612,
      "ignior": 1613,
      "INCE": 1614,
      "Ġdeser": 1615,
      "ments": 1616,
      "PRINCE": 1617,
      "az": 1618,
      "aid": 1619,
      "ca": 1620,
      "oint": 1621,
      "Ġtimes": 1622,
      "oriol": 1623,
      "ingbroke": 1624,
      "ceed": 1625,
      "Ġwithout": 1626,
      "enty": 1627,
      "Ġask": 1628,
      "ross": 1629,
      "ush": 1630,
      "Ġlost": 1631,
      "arewell": 1632,
      "olingbroke": 1633,
      "Ġpluck": 1634,
      "Ġreport": 1635,
      "Ġliege": 1636,
      "Ġbelieve": 1637,
      "Ġspirit": 1638,
      "ling": 1639,
      "sh": 1640,
      "xt": 1641,
      "Ġair": 1642,
      "Ġage": 1643,
      "outh": 1644,
      "Ġwat": 1645,
      "Ġheir": 1646,
      "ets": 1647,
      "ains": 1648,
      "Ġthyself": 1649,
      "ift": 1650,
      "Ġloss": 1651,
      "ĠMont": 1652,
      "Ġsays": 1653,
      "ĠBolingbroke": 1654,
      "Whose": 1655,
      "One": 1656,
      "Ġstrange": 1657,
      "ALO": 1658,
      "Had": 1659,
      "ial": 1660,
      "no": 1661,
      "ner": 1662,
      "Ġbat": 1663,
      "Ġcry": 1664,
      "Ġlearn": 1665,
      "ced": 1666,
      "Ġsuff": 1667,
      "aking": 1668,
      "Ġears": 1669,
      "Ġhaste": 1670,
      "ĠClifford": 1671,
      "Ġentreat": 1672,
      "Ġdevil": 1673,
      "Ġground": 1674,
      "Should": 1675,
      "Ġperson": 1676,
      "ĠJuliet": 1677,
      "Like": 1678,
      "Wh": 1679,
      "ges": 1680,
      "night": 1681,
      "Ġmur": 1682,
      "ined": 1683,
      "Ġfly": 1684,
      "Ġtoward": 1685,
      "Ġpast": 1686,
      "oman": 1687,
      "let": 1688,
      "Ġfast": 1689,
      "Ġvis": 1690,
      "aud": 1691,
      "ĠLu": 1692,
      "Ġpoint": 1693,
      "Ġfriar": 1694,
      "Ġdisp": 1695,
      "Ġslain": 1696,
      "Ġbetw": 1697,
      "ĠFrance": 1698,
      "ixt": 1699,
      "Ġjustice": 1700,
      "Ġstraight": 1701,
      "Ġremember": 1702,
      "APULET": 1703,
      "FL": 1704,
      "FID": 1705,
      "IZ": 1706,
      "May": 1707,
      "Some": 1708,
      "Ġord": 1709,
      "Ġsil": 1710,
      "ina": 1711,
      "Ġbold": 1712,
      "Ġcurse": 1713,
      "Ġnear": 1714,
      "ution": 1715,
      "Ġstrong": 1716,
      "These": 1717,
      "ĠCAPULET": 1718,
      "ORIZ": 1719,
      "Ġworthy": 1720,
      "Ġquick": 1721,
      "AUFID": 1722,
      "entleman": 1723,
      "Ġtrust": 1724,
      "Ġalone": 1725,
      "Ġdesire": 1726,
      "Ġinstru": 1727,
      "Ġbeauty": 1728,
      "Ġservice": 1729,
      "FLORIZ": 1730,
      "AUFIDIUS": 1731,
      "FLORIZEL": 1732,
      "Can": 1733,
      "SE": 1734,
      "Tell": 1735,
      "VER": 1736,
      "gs": 1737,
      "ning": 1738,
      "ship": 1739,
      "with": 1740,
      "Ġtouch": 1741,
      "Ġfound": 1742,
      "ithe": 1743,
      "ĠIs": 1744,
      "adam": 1745,
      "Ġready": 1746,
      "ION": 1747,
      "Ġbrought": 1748,
      "ured": 1749,
      "Ġposs": 1750,
      "ĠTybalt": 1751,
      "Ġrun": 1752,
      "Ġhard": 1753,
      "Ġenemy": 1754,
      "Ġrevenge": 1755,
      "Ġgeneral": 1756,
      "audio": 1757,
      "!'": 1758,
      "Ha": 1759,
      "ible": 1760,
      "vo": 1761,
      "ĠHere": 1762,
      "Ġwoo": 1763,
      "Ġduty": 1764,
      "enator": 1765,
      "Ġgrant": 1766,
      "Ġinf": 1767,
      "cept": 1768,
      "Ġitself": 1769,
      "amill": 1770,
      "Ġlose": 1771,
      "aunt": 1772,
      "Ġknows": 1773,
      "Ġcanst": 1774,
      "ĠSenator": 1775,
      "inks": 1776,
      "umber": 1777,
      "Ġmarried": 1778,
      "Ġthoughts": 1779,
      "Ġcharge": 1780,
      "Against": 1781,
      "Bec": 1782,
      "CIUS": 1783,
      "RICHARD": 1784,
      "Sp": 1785,
      "cester": 1786,
      "eep": 1787,
      "gu": 1788,
      "lou": 1789,
      "sue": 1790,
      "ua": 1791,
      "ĠYou": 1792,
      "Ġmorn": 1793,
      "Ġwear": 1794,
      "riage": 1795,
      "Ġread": 1796,
      "Ġdeli": 1797,
      "Ġspeed": 1798,
      "Ġquar": 1799,
      "Ġprof": 1800,
      "Ġtwenty": 1801,
      "Ġstands": 1802,
      "BAST": 1803,
      "Shepherd": 1804,
      "ched": 1805,
      "Ġhours": 1806,
      "Ġconfess": 1807,
      "Ġstreng": 1808,
      "SEBAST": 1809,
      "ithee": 1810,
      "SEBASTIAN": 1811,
      "OW": 1812,
      "cess": 1813,
      "ĠN": 1814,
      "Ġmock": 1815,
      "Ġfur": 1816,
      "Ġfore": 1817,
      "Ġfield": 1818,
      "ones": 1819,
      "Ġdiv": 1820,
      "Ġcar": 1821,
      "Ġyouth": 1822,
      "Ġpost": 1823,
      "Ġhell": 1824,
      "ingham": 1825,
      "Ġhalf": 1826,
      "oop": 1827,
      "Thus": 1828,
      "ĠRi": 1829,
      "olk": 1830,
      "fection": 1831,
      "ĠHast": 1832,
      "Ġjud": 1833,
      "ump": 1834,
      "Ġexec": 1835,
      "Ġfearful": 1836,
      "Ġcounsel": 1837,
      "amillo": 1838,
      "BION": 1839,
      "Com": 1840,
      "DEL": 1841,
      "Till": 1842,
      "most": 1843,
      "pare": 1844,
      "Ġter": 1845,
      "Ġmin": 1846,
      "Ġwret": 1847,
      "Ġbos": 1848,
      "Ġpar": 1849,
      "Ġbehold": 1850,
      "Ġinc": 1851,
      "Ġeach": 1852,
      "ads": 1853,
      "Ġrec": 1854,
      "Ġdel": 1855,
      "ĠCoriol": 1856,
      "ols": 1857,
      "Ġwork": 1858,
      "ortal": 1859,
      "Ġhearts": 1860,
      "Ġmarriage": 1861,
      "Ġdesp": 1862,
      "ĠClaudio": 1863,
      "itizens": 1864,
      "uckingham": 1865,
      "Ġresol": 1866,
      "MARCIUS": 1867,
      "ĠMontague": 1868,
      "loucester": 1869,
      "BIONDEL": 1870,
      "Ġbosom": 1871,
      "BIONDELLO": 1872,
      "Away": 1873,
      "MON": 1874,
      "Madam": 1875,
      "bly": 1876,
      "folk": 1877,
      "iers": 1878,
      "now": 1879,
      "ĠThe": 1880,
      "Ġtit": 1881,
      "Ġten": 1882,
      "Ġtale": 1883,
      "Ġbound": 1884,
      "Ġdam": 1885,
      "Ġcut": 1886,
      "ench": 1887,
      "Ġye": 1888,
      "Ġopen": 1889,
      "rah": 1890,
      "alm": 1891,
      "ĠCap": 1892,
      "Ġshort": 1893,
      "Ġknown": 1894,
      "ĠBuckingham": 1895,
      "Ġseek": 1896,
      "Ġharm": 1897,
      "Ġcompany": 1898,
      "Ġguilt": 1899,
      "Ġhighness": 1900,
      "Ġstrike": 1901,
      "Ġattend": 1902,
      "Ġserve": 1903,
      "Ġmurder": 1904,
      "ĠHastings": 1905,
      "Farewell": 1906,
      "HER": 1907,
      "OP": 1908,
      "chan": 1909,
      "hood": 1910,
      "Ġve": 1911,
      "ĠHe": 1912,
      "ĠAU": 1913,
      "Ġag": 1914,
      "Ġsat": 1915,
      "Ġside": 1916,
      "Ġwhi": 1917,
      "Ġwatch": 1918,
      "rest": 1919,
      "ished": 1920,
      "Ġfeel": 1921,
      "Ġdish": 1922,
      "Ġdist": 1923,
      "ents": 1924,
      "ander": 1925,
      "Ġsuit": 1926,
      "Ġloving": 1927,
      "ONIO": 1928,
      "Ġhonest": 1929,
      "Ġheavens": 1930,
      "Ġtrib": 1931,
      "MERLE": 1932,
      "Ġdraw": 1933,
      "Ġvoices": 1934,
      "Ġsomething": 1935,
      "ANTONIO": 1936,
      "Ġstrength": 1937,
      "ĠAUMERLE": 1938,
      "Marry": 1939,
      "Pray": 1940,
      "See": 1941,
      "ZALO": 1942,
      "fid": 1943,
      "ging": 1944,
      "Ġact": 1945,
      "Ġsake": 1946,
      "Ġwast": 1947,
      "Ġwonder": 1948,
      "Ġwidow": 1949,
      "Ġbit": 1950,
      "Ġcor": 1951,
      "Ġsto": 1952,
      "Ġstir": 1953,
      "ĠGentleman": 1954,
      "ĠGloucester": 1955,
      "ĠLanc": 1956,
      "Ġdidst": 1957,
      "Ġgentlemen": 1958,
      "Ġcloud": 1959,
      "Ġwomen": 1960,
      "ethinks": 1961,
      "Ġenemies": 1962,
      "GONZALO": 1963,
      "ĠLancaster": 1964,
      "Unt": 1965,
      "ives": 1966,
      "su": 1967,
      "Ġsing": 1968,
      "Ġmusic": 1969,
      "rew": 1970,
      "Ġbreat": 1971,
      "Ġdr": 1972,
      "Ġpra": 1973,
      "Ġpie": 1974,
      "Ġpale": 1975,
      "Ġgates": 1976,
      "oose": 1977,
      "race": 1978,
      "ils": 1979,
      "ĠCamillo": 1980,
      "Ġnext": 1981,
      "Ġknew": 1982,
      "Ġcoming": 1983,
      "Ġthanks": 1984,
      "Ġclose": 1985,
      "Ġpleasure": 1986,
      "Ġsouls": 1987,
      "ianca": 1988,
      "Ġcourse": 1989,
      "Ġenter": 1990,
      "Ġwithal": 1991,
      "Ġbrave": 1992,
      "Ġchee": 1993,
      "ceived": 1994,
      "Ġtitle": 1995,
      "DIO": 1996,
      "fter": 1997,
      "ne": 1998,
      "vour": 1999,
      "you": 2000,
      "Ġty": 2001,
      "Ġwa": 2002,
      "Ġbur": 2003,
      "Ġfit": 2004,
      "oward": 2005,
      "Ġgar": 2006,
      "Ġbecome": 2007,
      "etch": 2008,
      "etru": 2009,
      "Ġforg": 2010,
      "Ġweak": 2011,
      "Ġeither": 2012,
      "Ġlips": 2013,
      "rust": 2014,
      "els": 2015,
      "Ġjest": 2016,
      "Ġplain": 2017,
      "AUDIO": 2018,
      "Ġabs": 2019,
      "Ġpret": 2020,
      "claim": 2021,
      "Ġgrie": 2022,
      "CLAUDIO": 2023,
      "Ġchange": 2024,
      "MIONE": 2025,
      "ĠNorfolk": 2026,
      "CLIFFORD": 2027,
      "Ġsuffer": 2028,
      "Ġdeliver": 2029,
      "HERMIONE": 2030,
      "DA": 2031,
      "EDWARD": 2032,
      "LORD": 2033,
      "Most": 2034,
      "cher": 2035,
      "kes": 2036,
      "ses": 2037,
      "ufid": 2038,
      "ĠTh": 2039,
      "Ġsk": 2040,
      "Ġsame": 2041,
      "Ġsick": 2042,
      "Ġsign": 2043,
      "Ġwis": 2044,
      "Ġwall": 2045,
      "ready": 2046,
      "isf": 2047,
      "Ġcast": 2048,
      "irth": 2049,
      "chio": 2050,
      "Ġforb": 2051,
      "Ġforget": 2052,
      "oof": 2053,
      "ries": 2054,
      "Ġreg": 2055,
      "urp": 2056,
      "east": 2057,
      "Ġven": 2058,
      "Ġthemselves": 2059,
      "ĠBianca": 2060,
      "Ġworse": 2061,
      "ĠPom": 2062,
      "Ġtook": 2063,
      "Ġpoison": 2064,
      "Ġalong": 2065,
      "Ġrich": 2066,
      "Ġbreast": 2067,
      "ranio": 2068,
      "Ġconsul": 2069,
      "RANDA": 2070,
      "MIRANDA": 2071,
      "twas": 2072,
      "twere": 2073,
      "Ġcheer": 2074,
      "Ġpatience": 2075,
      "Ġmerry": 2076,
      "Ġorder": 2077,
      "etruchio": 2078,
      "ufidius": 2079,
      "HN": 2080,
      "Messenger": 2081,
      "OHN": 2082,
      "SA": 2083,
      "SON": 2084,
      "Servant": 2085,
      "lst": 2086,
      "oin": 2087,
      "ting": 2088,
      "Ġmouth": 2089,
      "Ġwed": 2090,
      "Ġbad": 2091,
      "Ġbook": 2092,
      "Ġfour": 2093,
      "Ġdu": 2094,
      "ĠIf": 2095,
      "Ġgave": 2096,
      "chm": 2097,
      "Ġissue": 2098,
      "ash": 2099,
      "Ġliber": 2100,
      "vern": 2101,
      "Ġself": 2102,
      "ions": 2103,
      "rows": 2104,
      "ally": 2105,
      "Ġoffice": 2106,
      "Ġalready": 2107,
      "Being": 2108,
      "Ġmove": 2109,
      "Ġvirtue": 2110,
      "Ġgiven": 2111,
      "Ġbattle": 2112,
      "ĠHereford": 2113,
      "Ġmorning": 2114,
      "Ġfurther": 2115,
      "Make": 2116,
      "Since": 2117,
      "mber": 2118,
      "nk": 2119,
      "pes": 2120,
      "rist": 2121,
      "she": 2122,
      "uous": 2123,
      "used": 2124,
      "Ġta": 2125,
      "Ġac": 2126,
      "oun": 2127,
      "Ġwise": 2128,
      "Ġburn": 2129,
      "orge": 2130,
      "Ġfrown": 2131,
      "Ġfeast": 2132,
      "Ġdire": 2133,
      "esh": 2134,
      "Ġlad": 2135,
      "Ġpay": 2136,
      "anus": 2137,
      "Ġgro": 2138,
      "ats": 2139,
      "Ġred": 2140,
      "Ġsoft": 2141,
      "each": 2142,
      "Ġsucc": 2143,
      "icer": 2144,
      "Ġblack": 2145,
      "Ġgoes": 2146,
      "Ġsworn": 2147,
      "ĠSignior": 2148,
      "elcome": 2149,
      "Ġprop": 2150,
      "Ġsons": 2151,
      "Ġfoe": 2152,
      "Ġext": 2153,
      "ĠTower": 2154,
      "Before": 2155,
      "Ġtrou": 2156,
      "Ġbegg": 2157,
      "Ġbegin": 2158,
      "Ġconsent": 2159,
      "dden": 2160,
      "Ġsoldiers": 2161,
      "Ġrequest": 2162,
      "ĠLucentio": 2163,
      "Ġbetween": 2164,
      "Ġquarrel": 2165,
      "Ġsatisf": 2166,
      "chmond": 2167,
      "AS": 2168,
      "Call": 2169,
      "IR": 2170,
      "Must": 2171,
      "NT": 2172,
      "Re": 2173,
      "Sw": 2174,
      "Such": 2175,
      "gare": 2176,
      "ires": 2177,
      "ures": 2178,
      "ung": 2179,
      "uff": 2180,
      "ĠFor": 2181,
      "hem": 2182,
      "Ġservant": 2183,
      "Ġbar": 2184,
      "Ġdro": 2185,
      "Ġdark": 2186,
      "Ġcr": 2187,
      "Ġcase": 2188,
      "Ġthri": 2189,
      "aris": 2190,
      "ots": 2191,
      "stand": 2192,
      "owers": 2193,
      "irm": 2194,
      "Ġloves": 2195,
      "ĠCh": 2196,
      "ends": 2197,
      "Ġbless": 2198,
      "empt": 2199,
      "Ġthence": 2200,
      "Ġworth": 2201,
      "ĠAufidius": 2202,
      "CATES": 2203,
      "Ġexp": 2204,
      "awd": 2205,
      "Ġpresence": 2206,
      "Ġpriv": 2207,
      "Unless": 2208,
      "Alas": 2209,
      "Ġwounds": 2210,
      "Ġdangerous": 2211,
      "Because": 2212,
      "garet": 2213,
      "CATESBY": 2214,
      "LY": 2215,
      "oll": 2216,
      "that": 2217,
      "Ġsigh": 2218,
      "Ġble": 2219,
      "ona": 2220,
      "onour": 2221,
      "Ġhot": 2222,
      "Ġgot": 2223,
      "Ġinter": 2224,
      "Ġund": 2225,
      "Ġev": 2226,
      "Ġsum": 2227,
      "Ġneither": 2228,
      "Ġvict": 2229,
      "emn": 2230,
      "ĠLond": 2231,
      "ĠSir": 2232,
      "ĠVols": 2233,
      "cient": 2234,
      "Ġwars": 2235,
      "Ġflatter": 2236,
      "Ġmighty": 2237,
      "Ġrespect": 2238,
      "Ġdread": 2239,
      "Ġbride": 2240,
      "Ġbrief": 2241,
      "Ġthrone": 2242,
      "Ġvoice": 2243,
      "Ġemb": 2244,
      "aptist": 2245,
      "Ġdeny": 2246,
      "Ġspoke": 2247,
      "Ġwater": 2248,
      "Ġvisit": 2249,
      "ĠLondon": 2250,
      "Both": 2251,
      "BIAN": 2252,
      "JOHN": 2253,
      "Lest": 2254,
      "Rome": 2255,
      "REY": 2256,
      "Yes": 2257,
      "eorge": 2258,
      "ip": 2259,
      "iant": 2260,
      "mand": 2261,
      "ught": 2262,
      "Ġest": 2263,
      "Ġmal": 2264,
      "Ġmortal": 2265,
      "Ġbow": 2266,
      "Ġbab": 2267,
      "Ġfra": 2268,
      "ern": 2269,
      "Ġhur": 2270,
      "Ġtown": 2271,
      "Ġoften": 2272,
      "Ġhaving": 2273,
      "right": 2274,
      "ided": 2275,
      "Ġsudden": 2276,
      "rum": 2277,
      "Ġancient": 2278,
      "Ġspeech": 2279,
      "Ġvow": 2280,
      "ĠGeorge": 2281,
      "Ġloved": 2282,
      "Ġkings": 2283,
      "ĠBaptist": 2284,
      "Ġworship": 2285,
      "LIA": 2286,
      "ĠParis": 2287,
      "Ġsafe": 2288,
      "ired": 2289,
      "ainted": 2290,
      "BAL": 2291,
      "ĠMargaret": 2292,
      "Ġprincely": 2293,
      "BRA": 2294,
      "Ġchamber": 2295,
      "Ġseems": 2296,
      "bey": 2297,
      "Ġbuy": 2298,
      "Ġdeeds": 2299,
      "Whom": 2300,
      "VERS": 2301,
      "ĠRichmond": 2302,
      "Ġbitter": 2303,
      "BIANCA": 2304,
      "BOW": 2305,
      "Welcome": 2306,
      "king": 2307,
      "ls": 2308,
      "lish": 2309,
      "mb": 2310,
      "rt": 2311,
      "sp": 2312,
      "ura": 2313,
      "ĠThou": 2314,
      "ĠThis": 2315,
      "Ġfres": 2316,
      "Ġfetch": 2317,
      "Ġcol": 2318,
      "Ġcross": 2319,
      "Ġcoward": 2320,
      "essed": 2321,
      "Ġlim": 2322,
      "Ġpen": 2323,
      "otion": 2324,
      "ated": 2325,
      "urch": 2326,
      "Ġknock": 2327,
      "antage": 2328,
      "oney": 2329,
      "Ġprot": 2330,
      "ĠGAU": 2331,
      "ĠLady": 2332,
      "ĠSaint": 2333,
      "ĠServant": 2334,
      "Ġkingdom": 2335,
      "ĠPl": 2336,
      "Ġsac": 2337,
      "ELBOW": 2338,
      "Ġheads": 2339,
      "Ġscorn": 2340,
      "Ġrage": 2341,
      "Ġappear": 2342,
      "Ġlead": 2343,
      "Ġwitness": 2344,
      "RIVERS": 2345,
      "Ġpatient": 2346,
      "Ġpromise": 2347,
      "Ġlament": 2348,
      "Ġvaliant": 2349,
      "ĠIsab": 2350,
      "Speak": 2351,
      "Ġsuccess": 2352,
      "ĠBaptista": 2353,
      "ĠGAUNT": 2354,
      "Bes": 2355,
      "Ere": 2356,
      "GUE": 2357,
      "Hold": 2358,
      "TY": 2359,
      "cy": 2360,
      "coun": 2361,
      "nown": 2362,
      "sper": 2363,
      "will": 2364,
      "xford": 2365,
      "ĠKING": 2366,
      "Ġign": 2367,
      "Ġaction": 2368,
      "Ġbro": 2369,
      "Ġbawd": 2370,
      "ities": 2371,
      "Ġcle": 2372,
      "Ġcreat": 2373,
      "Ġcap": 2374,
      "Ġlack": 2375,
      "Ġthrow": 2376,
      "Ġow": 2377,
      "Ġopp": 2378,
      "Ġgall": 2379,
      "Ġforward": 2380,
      "Ġeat": 2381,
      "Ġkins": 2382,
      "Their": 2383,
      "iff": 2384,
      "Ġang": 2385,
      "Ġviol": 2386,
      "antag": 2387,
      "Ġprin": 2388,
      "Ġprithee": 2389,
      "ĠMy": 2390,
      "Ġwash": 2391,
      "ortens": 2392,
      "aken": 2393,
      "ĠPetruchio": 2394,
      "Ġoffer": 2395,
      "Ġleast": 2396,
      "Ġslave": 2397,
      "Ġflesh": 2398,
      "ĠTranio": 2399,
      "Ġprepare": 2400,
      "Ġprayers": 2401,
      "then": 2402,
      "Ġappro": 2403,
      "TAGUE": 2404,
      "Ġtriump": 2405,
      "Ġmoon": 2406,
      "Ġcompl": 2407,
      "itted": 2408,
      "Ġtribunes": 2409,
      "Ġdrink": 2410,
      "ĠChrist": 2411,
      "Romeo": 2412,
      "ortensio": 2413,
      "Yea": 2414,
      "bit": 2415,
      "but": 2416,
      "ees": 2417,
      "joy": 2418,
      "ler": 2419,
      "oor": 2420,
      "ohem": 2421,
      "vest": 2422,
      "Ġid": 2423,
      "Ġsur": 2424,
      "Ġmid": 2425,
      "ines": 2426,
      "Ġfie": 2427,
      "Ġdest": 2428,
      "Ġnay": 2429,
      "Ġthither": 2430,
      "Ġhide": 2431,
      "athar": 2432,
      "Ġbeast": 2433,
      "ley": 2434,
      "Ġreb": 2435,
      "raw": 2436,
      "als": 2437,
      "alth": 2438,
      "cks": 2439,
      "thumber": 2440,
      "host": 2441,
      "asters": 2442,
      "feit": 2443,
      "aked": 2444,
      "pey": 2445,
      "Ġalmost": 2446,
      "ully": 2447,
      "Ġscar": 2448,
      "Ġsmall": 2449,
      "Ġpresently": 2450,
      "Ġfaults": 2451,
      "Ġdepart": 2452,
      "Ġsecret": 2453,
      "Ġsubjects": 2454,
      "Ġdefend": 2455,
      "Ġpossess": 2456,
      "atharina": 2457,
      "thumberland": 2458,
      "Con": 2459,
      "DI": 2460,
      "GI": 2461,
      "IEL": 2462,
      "Pl": 2463,
      "VIR": 2464,
      "Whi": 2465,
      "aul": 2466,
      "hind": 2467,
      "ying": 2468,
      "Ġtear": 2469,
      "Ġwert": 2470,
      "rey": 2471,
      "Ġben": 2472,
      "Ġbase": 2473,
      "Ġbirth": 2474,
      "Ġfill": 2475,
      "Ġfond": 2476,
      "Ġlab": 2477,
      "arl": 2478,
      "Ġpain": 2479,
      "inger": 2480,
      "Ġbec": 2481,
      "Ġform": 2482,
      "Ġeas": 2483,
      "Ġstru": 2484,
      "Ġliving": 2485,
      "rue": 2486,
      "though": 2487,
      "Ġgoodly": 2488,
      "Ġwhence": 2489,
      "ĠGREY": 2490,
      "Ġusurp": 2491,
      "cience": 2492,
      "Ġtrump": 2493,
      "Ġhearing": 2494,
      "Ġslaughter": 2495,
      "Ġperform": 2496,
      "Ġwrit": 2497,
      "perate": 2498,
      "ledge": 2499,
      "Stay": 2500,
      "Stand": 2501,
      "Ġchance": 2502,
      "PERDI": 2503,
      "Ġvirtuous": 2504,
      "Ġquickly": 2505,
      "MONTAGUE": 2506,
      "Ġdamn": 2507,
      "ural": 2508,
      "ohemia": 2509,
      "GILIA": 2510,
      "VIRGILIA": 2511,
      "PERDITA": 2512,
      "Ab": 2513,
      "Doth": 2514,
      "Peace": 2515,
      "SET": 2516,
      "SLY": 2517,
      "ding": 2518,
      "eem": 2519,
      "gg": 2520,
      "iest": 2521,
      "over": 2522,
      "oss": 2523,
      "ror": 2524,
      "your": 2525,
      "ze": 2526,
      "Ġut": 2527,
      "Ġtor": 2528,
      "Ġay": 2529,
      "Ġmatch": 2530,
      "Ġmild": 2531,
      "Ġwild": 2532,
      "read": 2533,
      "isure": 2534,
      "Ġfier": 2535,
      "ony": 2536,
      "Ġca": 2537,
      "Ġcertain": 2538,
      "arn": 2539,
      "Ġpu": 2540,
      "Ġpit": 2541,
      "ingly": 2542,
      "sem": 2543,
      "Ġinj": 2544,
      "Ġins": 2545,
      "Ġinno": 2546,
      "eds": 2547,
      "edant": 2548,
      "Ġur": 2549,
      "Ġshad": 2550,
      "Think": 2551,
      "Ġknee": 2552,
      "Ġkneel": 2553,
      "astard": 2554,
      "ustom": 2555,
      "Ġblows": 2556,
      "ĠSt": 2557,
      "ĠOxford": 2558,
      "Ġquiet": 2559,
      "Ġproceed": 2560,
      "ĠPaul": 2561,
      "Ġhadst": 2562,
      "Ġoffence": 2563,
      "Ġadm": 2564,
      "Ġpleas": 2565,
      "force": 2566,
      "Ġaffection": 2567,
      "Ġslew": 2568,
      "IANA": 2569,
      "Ġlawful": 2570,
      "Ġglad": 2571,
      "bling": 2572,
      "Ġweeping": 2573,
      "MARIANA": 2574,
      "Ġsoldier": 2575,
      "Ġawhile": 2576,
      "Ġdeserved": 2577,
      "Ġexecution": 2578,
      "ĠCoriolanus": 2579,
      "Ġguilty": 2580,
      "Ġpretty": 2581,
      "ĠPompey": 2582,
      "Ġangry": 2583,
      "Fa": 2584,
      "Mar": 2585,
      "Master": 2586,
      "PAR": 2587,
      "RA": 2588,
      "VINCENTIO": 2589,
      "awn": 2590,
      "dge": 2591,
      "fully": 2592,
      "gue": 2593,
      "ked": 2594,
      "med": 2595,
      "ual": 2596,
      "vol": 2597,
      "zen": 2598,
      "Ġap": 2599,
      "Ġshi": 2600,
      "Ġsho": 2601,
      "Ġmed": 2602,
      "Ġmod": 2603,
      "Ġwalk": 2604,
      "Ġfam": 2605,
      "Ġfled": 2606,
      "eness": 2607,
      "Ġyear": 2608,
      "Ġob": 2609,
      "Ġocc": 2610,
      "Ġhap": 2611,
      "Ġmeasure": 2612,
      "Ġforsw": 2613,
      "adua": 2614,
      "Ġreign": 2615,
      "Ġdoom": 2616,
      "ames": 2617,
      "Ġnob": 2618,
      "rupt": 2619,
      "Ġourselves": 2620,
      "Ġfavour": 2621,
      "Ġneck": 2622,
      "Ġshows": 2623,
      "ended": 2624,
      "Ġblow": 2625,
      "Ġgovern": 2626,
      "Ġwouldst": 2627,
      "Ġletters": 2628,
      "Ġunc": 2629,
      "Ġunk": 2630,
      "Ġworst": 2631,
      "Ġspeaks": 2632,
      "Ġmarch": 2633,
      "ighb": 2634,
      "ĠKatharina": 2635,
      "Ġgreater": 2636,
      "Ġleisure": 2637,
      "osition": 2638,
      "Ġtreason": 2639,
      "ĠEnglish": 2640,
      "Ġbanishment": 2641,
      "Ġsense": 2642,
      "remio": 2643,
      "Ġcondemn": 2644,
      "ointed": 2645,
      "Ġdishonour": 2646,
      "Ġclouds": 2647,
      "Ġbreathe": 2648,
      "Ġforbid": 2649,
      "Ġliberty": 2650,
      "Ġladies": 2651,
      "Ġtrouble": 2652,
      "rumio": 2653,
      "ĠIsabel": 2654,
      "counter": 2655,
      "antagen": 2656,
      "PARIS": 2657,
      ":'": 2658,
      "Int": 2659,
      "Out": 2660,
      "Too": 2661,
      "While": 2662,
      "aves": 2663,
      "acle": 2664,
      "dle": 2665,
      "house": 2666,
      "rim": 2667,
      "rous": 2668,
      "ĠX": 2669,
      "Ġsort": 2670,
      "Ġmorrow": 2671,
      "Ġwon": 2672,
      "Ġdry": 2673,
      "Ġcru": 2674,
      "Ġlan": 2675,
      "Ġlist": 2676,
      "Ġlaid": 2677,
      "aring": 2678,
      "Ġobey": 2679,
      "Ġheld": 2680,
      "vel": 2681,
      "ster": 2682,
      "ators": 2683,
      "Ġbehind": 2684,
      "set": 2685,
      "Ġnote": 2686,
      "Ġstor": 2687,
      "ider": 2688,
      "Ġref": 2689,
      "Ġlived": 2690,
      "urs": 2691,
      "Ġaside": 2692,
      "Ġdog": 2693,
      "Ġnoise": 2694,
      "Ġseat": 2695,
      "iles": 2696,
      "Ġvain": 2697,
      "ĠMerc": 2698,
      "ĠBohemia": 2699,
      "Ġletter": 2700,
      "Ġjoin": 2701,
      "ounds": 2702,
      "Ġprosper": 2703,
      "Ġrough": 2704,
      "Ġabove": 2705,
      "ize": 2706,
      "Ġremain": 2707,
      "Ġlonger": 2708,
      "Ġwomb": 2709,
      "Ġneeds": 2710,
      "Ġchoose": 2711,
      "Ġchurch": 2712,
      "Ġprisoner": 2713,
      "Ġsecond": 2714,
      "Ġtemp": 2715,
      "Ġgolden": 2716,
      "undred": 2717,
      "Ġdispatch": 2718,
      "Ġpiece": 2719,
      "Ġfresh": 2720,
      "Ġignor": 2721,
      "Ġbecause": 2722,
      "antagenet": 2723,
      "!--": 2724,
      "Am": 2725,
      "De": 2726,
      "DOR": 2727,
      "EW": 2728,
      "En": 2729,
      "Hark": 2730,
      "LAR": 2731,
      "Pr": 2732,
      "Su": 2733,
      "TIUS": 2734,
      "bb": 2735,
      "ban": 2736,
      "cal": 2737,
      "ffect": 2738,
      "him": 2739,
      "iled": 2740,
      "ny": 2741,
      "ts": 2742,
      "under": 2743,
      "ulet": 2744,
      "ĠNow": 2745,
      "Ġtent": 2746,
      "Ġsch": 2747,
      "Ġsus": 2748,
      "Ġsaint": 2749,
      "Ġmut": 2750,
      "inius": 2751,
      "Ġbig": 2752,
      "Ġbroke": 2753,
      "Ġbones": 2754,
      "Ġfat": 2755,
      "Ġfine": 2756,
      "Ġfive": 2757,
      "erle": 2758,
      "itors": 2759,
      "Ġdrown": 2760,
      "Ġcitizens": 2761,
      "Ġlen": 2762,
      "Ġlow": 2763,
      "Ġlust": 2764,
      "Ġlau": 2765,
      "Ġthreat": 2766,
      "Ġhundred": 2767,
      "Ġobed": 2768,
      "Ġpet": 2769,
      "vey": 2770,
      "ang": 2771,
      "Ġoft": 2772,
      "Ġbend": 2773,
      "Ġbell": 2774,
      "Ġind": 2775,
      "ceit": 2776,
      "lease": 2777,
      "ety": 2778,
      "Ġeffect": 2779,
      "Ġyourselves": 2780,
      "Ġstood": 2781,
      "Ġstain": 2782,
      "Ġsteel": 2783,
      "Ġsteal": 2784,
      "ords": 2785,
      "asion": 2786,
      "Ġrevere": 2787,
      "Ġsole": 2788,
      "ARIEL": 2789,
      "ease": 2790,
      "Ġknees": 2791,
      "ular": 2792,
      "icious": 2793,
      "Ġconqu": 2794,
      "ieu": 2795,
      "Ġblessed": 2796,
      "ĠGaunt": 2797,
      "ĠGremio": 2798,
      "Ġshed": 2799,
      "ĠLet": 2800,
      "ĠLEW": 2801,
      "Ġswift": 2802,
      "ĠHortensio": 2803,
      "Ġgrand": 2804,
      "Ġproclaim": 2805,
      "ĠPr": 2806,
      "ĠPadua": 2807,
      "Ġsaf": 2808,
      "ume": 2809,
      "ĠWatch": 2810,
      "istress": 2811,
      "Ġexc": 2812,
      "Ġdesperate": 2813,
      "Ġslander": 2814,
      "Ġprecious": 2815,
      "Ġbears": 2816,
      "Ġappare": 2817,
      "Ġconscience": 2818,
      "Ġentertain": 2819,
      "ontent": 2820,
      "Ġpride": 2821,
      "Sirrah": 2822,
      "uthor": 2823,
      "Ġglory": 2824,
      "Ġdouble": 2825,
      "atesby": 2826,
      "Ġwoes": 2827,
      "posed": 2828,
      "Ġlands": 2829,
      "Ġsentence": 2830,
      "ĠNorthumberland": 2831,
      "Ġdrunk": 2832,
      "Ġtowards": 2833,
      "ĠCapulet": 2834,
      "Unto": 2835,
      "Ġforgot": 2836,
      "Ġwisdom": 2837,
      "Ġvenge": 2838,
      "Sweet": 2839,
      "Ġvictory": 2840,
      "Ġkinsman": 2841,
      "ĠXI": 2842,
      "LARTIUS": 2843,
      "ĠLEWIS": 2844,
      "ĠWatchman": 2845,
      ";'": 2846,
      "Bel": 2847,
      "Could": 2848,
      "Hear": 2849,
      "MP": 2850,
      "Me": 2851,
      "Pardon": 2852,
      "Pedant": 2853,
      "RTIS": 2854,
      "bray": 2855,
      "den": 2856,
      "gment": 2857,
      "hn": 2858,
      "iance": 2859,
      "ohn": 2860,
      "pir": 2861,
      "ude": 2862,
      "vail": 2863,
      "which": 2864,
      "head": 2865,
      "Ġauthor": 2866,
      "Ġsour": 2867,
      "Ġmount": 2868,
      "Ġmethinks": 2869,
      "Ġmoney": 2870,
      "Ġmasters": 2871,
      "rent": 2872,
      "rence": 2873,
      "Ġfe": 2874,
      "Ġfru": 2875,
      "Ġfought": 2876,
      "Ġfew": 2877,
      "Ġdied": 2878,
      "Ġdeter": 2879,
      "Ġcapt": 2880,
      "Ġpun": 2881,
      "owbray": 2882,
      "Ġhair": 2883,
      "irl": 2884,
      "Ġeld": 2885,
      "Ġstud": 2886,
      "estion": 2887,
      "Ġdoing": 2888,
      "iful": 2889,
      "Ġseal": 2890,
      "ility": 2891,
      "ĠCa": 2892,
      "cted": 2893,
      "ETER": 2894,
      "Ġmanner": 2895,
      "ĠEarl": 2896,
      "ĠGo": 2897,
      "ĠGrumio": 2898,
      "Ġknowledge": 2899,
      "umerle": 2900,
      "Ġenjoy": 2901,
      "Ġran": 2902,
      "ĠAnt": 2903,
      "Within": 2904,
      "Ġalive": 2905,
      "Ġabro": 2906,
      "ways": 2907,
      "Ġhonours": 2908,
      "Ġwarm": 2909,
      "ations": 2910,
      "Ġdeadly": 2911,
      "Ġkept": 2912,
      "Ġcontr": 2913,
      "Ġcontin": 2914,
      "Ġarmy": 2915,
      "Ġlordship": 2916,
      "Ġguest": 2917,
      "Ġguess": 2918,
      "CURTIS": 2919,
      "Ġpromised": 2920,
      "comes": 2921,
      "eeper": 2922,
      "Ġwretched": 2923,
      "Ġdespair": 2924,
      "Ġcheeks": 2925,
      "SAMP": 2926,
      "Ġlabour": 2927,
      "Ġstruck": 2928,
      "Faith": 2929,
      "Ġdeterm": 2930,
      "SAMPSON": 2931,
      "'re": 2932,
      ":--": 2933,
      "BU": 2934,
      "Br": 2935,
      "Citizens": 2936,
      "Dis": 2937,
      "EX": 2938,
      "Either": 2939,
      "IGON": 2940,
      "bury": 2941,
      "ey": 2942,
      "good": 2943,
      "mit": 2944,
      "take": 2945,
      "Ġtry": 2946,
      "Ġteach": 2947,
      "Ġaid": 2948,
      "ounce": 2949,
      "Ġsim": 2950,
      "reed": 2951,
      "Ġbastard": 2952,
      "orious": 2953,
      "llow": 2954,
      "ited": 2955,
      "Ġdance": 2956,
      "Ġcorn": 2957,
      "Ġcred": 2958,
      "Ġcried": 2959,
      "Ġpal": 2960,
      "Ġhel": 2961,
      "Ġhealth": 2962,
      "stant": 2963,
      "utio": 2964,
      "ourn": 2965,
      "Ġliest": 2966,
      "Ġdeg": 2967,
      "Ġdemand": 2968,
      "Ġshake": 2969,
      "eaven": 2970,
      "ament": 2971,
      "Ġsever": 2972,
      "Ġherself": 2973,
      "Ġspent": 2974,
      "ĠMaster": 2975,
      "ĠMowbray": 2976,
      "Ġwhether": 2977,
      "Ġamong": 2978,
      "Ġshepherd": 2979,
      "othing": 2980,
      "ppy": 2981,
      "Ġunp": 2982,
      "Ġunw": 2983,
      "ĠHow": 2984,
      "Ġquoth": 2985,
      "Ġprov": 2986,
      "umb": 2987,
      "Ġplant": 2988,
      "ĠWill": 2989,
      "ĠWhy": 2990,
      "osed": 2991,
      "Ġencounter": 2992,
      "Ġrot": 2993,
      "Ġofficer": 2994,
      "Ġbrothers": 2995,
      "Ġearly": 2996,
      "Ġhonourable": 2997,
      "Ġflowers": 2998,
      "LEY": 2999,
      "Ġcalls": 3000,
      "Ġwhite": 3001,
      "Ġremed": 3002,
      "Ġmoved": 3003,
      "Ġaccount": 3004,
      "ewis": 3005,
      "Ġkindred": 3006,
      "Ġpriest": 3007,
      "Ġguard": 3008,
      "Ġcharity": 3009,
      "Ġunderstand": 3010,
      "Ġfoolish": 3011,
      "Ġhumble": 3012,
      "Ġcounter": 3013,
      "Ġdreams": 3014,
      "Ġgreet": 3015,
      "ANTIGON": 3016,
      "Ġvalour": 3017,
      "Ġjudge": 3018,
      "Ġwretch": 3019,
      "Ġbeggar": 3020,
      "Ġsummer": 3021,
      "Ġtriumph": 3022,
      "Ġcruel": 3023,
      "BURY": 3024,
      "ANTIGONUS": 3025,
      "Bet": 3026,
      "Fear": 3027,
      "Lo": 3028,
      "Mine": 3029,
      "Made": 3030,
      "TCLIFF": 3031,
      "True": 3032,
      "fall": 3033,
      "mon": 3034,
      "rison": 3035,
      "ĠAnd": 3036,
      "heart": 3037,
      "ining": 3038,
      "Ġwail": 3039,
      "orthy": 3040,
      "Ġfart": 3041,
      "Ġfaint": 3042,
      "ites": 3043,
      "Ġdin": 3044,
      "Ġdwell": 3045,
      "Ġyea": 3046,
      "Ġthro": 3047,
      "Ġhung": 3048,
      "Ġpack": 3049,
      "Ġga": 3050,
      "Ġgent": 3051,
      "leep": 3052,
      "Ġforce": 3053,
      "Ġweary": 3054,
      "Ġstone": 3055,
      "Ġstars": 3056,
      "ask": 3057,
      "roy": 3058,
      "Ġbutcher": 3059,
      "ify": 3060,
      "Ġseven": 3061,
      "Ġanon": 3062,
      "Ġours": 3063,
      "ĠCom": 3064,
      "Ġneighb": 3065,
      "ĠRoman": 3066,
      "Ġvie": 3067,
      "ief": 3068,
      "Ġblame": 3069,
      "Ġgoing": 3070,
      "ĠLewis": 3071,
      "Ġthereof": 3072,
      "Ġunf": 3073,
      "Ġuns": 3074,
      "Ġenvy": 3075,
      "Ġrise": 3076,
      "Ġthinks": 3077,
      "Ġrid": 3078,
      "Ġparty": 3079,
      "Ġadd": 3080,
      "Ġothers": 3081,
      "ĠJohn": 3082,
      "ians": 3083,
      "Ġkindness": 3084,
      "Ġchast": 3085,
      "Ġbids": 3086,
      "Ġbright": 3087,
      "Ġglass": 3088,
      "Ġmiser": 3089,
      "Ġcrave": 3090,
      "Twas": 3091,
      "Ġwinter": 3092,
      "Ġmonth": 3093,
      "Ġminister": 3094,
      "Ġwalls": 3095,
      "Ġextrem": 3096,
      "Ġsatisfied": 3097,
      "Ġprivate": 3098,
      "ĠVolsces": 3099,
      "Ġidle": 3100,
      "Ġscarce": 3101,
      "Ġbenef": 3102,
      "RATCLIFF": 3103,
      "Ġlaugh": 3104,
      "Ġvengeance": 3105,
      "Ġabroad": 3106,
      "Ġview": 3107,
      "After": 3108,
      "Bid": 3109,
      "BIS": 3110,
      "Fie": 3111,
      "Gentle": 3112,
      "HOP": 3113,
      "Ne": 3114,
      "Never": 3115,
      "Signior": 3116,
      "Under": 3117,
      "aff": 3118,
      "gra": 3119,
      "ners": 3120,
      "ope": 3121,
      "shall": 3122,
      "ued": 3123,
      "vious": 3124,
      "whe": 3125,
      "woman": 3126,
      "Ġver": 3127,
      "incentio": 3128,
      "Ġwre": 3129,
      "Ġwench": 3130,
      "rees": 3131,
      "have": 3132,
      "orous": 3133,
      "Ġfirm": 3134,
      "Ġcir": 3135,
      "Ġcorse": 3136,
      "enes": 3137,
      "Ġlest": 3138,
      "Ġhol": 3139,
      "vell": 3140,
      "ott": 3141,
      "omas": 3142,
      "att": 3143,
      "ating": 3144,
      "Ġincl": 3145,
      "cell": 3146,
      "utland": 3147,
      "Ġformer": 3148,
      "Ġease": 3149,
      "riar": 3150,
      "ident": 3151,
      "Ġrel": 3152,
      "Ġreceived": 3153,
      "Ġdeal": 3154,
      "amp": 3155,
      "Ġsport": 3156,
      "Ġfaire": 3157,
      "ANLEY": 3158,
      "ĠRutland": 3159,
      "Ġvile": 3160,
      "Ġshrew": 3161,
      "antua": 3162,
      "ĠMantua": 3163,
      "Ġconcl": 3164,
      "Ġconvey": 3165,
      "Ġgod": 3166,
      "allow": 3167,
      "ĠBarn": 3168,
      "Ġarri": 3169,
      "Ġunb": 3170,
      "ĠHer": 3171,
      "ĠVincentio": 3172,
      "Ġmayst": 3173,
      "eless": 3174,
      "Ġquite": 3175,
      "Ġprovost": 3176,
      "IST": 3177,
      "Ġtruly": 3178,
      "Ġdism": 3179,
      "Off": 3180,
      "Ġfoes": 3181,
      "Ġroot": 3182,
      "Ġwherefore": 3183,
      "Ġflower": 3184,
      "Ġimag": 3185,
      "Ġtrial": 3186,
      "ailor": 3187,
      "Ġsmo": 3188,
      "Ġtrem": 3189,
      "Ġfellows": 3190,
      "rench": 3191,
      "Ġchanged": 3192,
      "Ġcover": 3193,
      "Ġhumour": 3194,
      "Ġboot": 3195,
      "Ġswords": 3196,
      "Ġdeputy": 3197,
      "Ġcondition": 3198,
      "Ġjudgment": 3199,
      "change": 3200,
      "Ġtyrant": 3201,
      "Ġacqu": 3202,
      "Ġevil": 3203,
      "BALT": 3204,
      "TYBALT": 3205,
      "Whilst": 3206,
      "Ġeasy": 3207,
      "ĠMercutio": 3208,
      "Ġschool": 3209,
      "Ġexcuse": 3210,
      "Ġfruit": 3211,
      "BISHOP": 3212,
      "'?": 3213,
      "AL": 3214,
      "Bl": 3215,
      "Des": 3216,
      "Ex": 3217,
      "KEN": 3218,
      "Methinks": 3219,
      "Put": 3220,
      "Tut": 3221,
      "ault": 3222,
      "after": 3223,
      "con": 3224,
      "ek": 3225,
      "ead": 3226,
      "ered": 3227,
      "his": 3228,
      "oot": 3229,
      "pin": 3230,
      "roth": 3231,
      "rate": 3232,
      "shi": 3233,
      "ta": 3234,
      "vish": 3235,
      "Ġtaken": 3236,
      "Ġwither": 3237,
      "Ġba": 3238,
      "Ġbrow": 3239,
      "Ġbite": 3240,
      "Ġbrows": 3241,
      "Ġfain": 3242,
      "Ġfeed": 3243,
      "erona": 3244,
      "Ġdust": 3245,
      "Ġdull": 3246,
      "enance": 3247,
      "Ġthunder": 3248,
      "Ġpains": 3249,
      "anley": 3250,
      "Ġgown": 3251,
      "Ġgrown": 3252,
      "Ġgift": 3253,
      "Ġghost": 3254,
      "Ġgirl": 3255,
      "Ġbeha": 3256,
      "Ġmeat": 3257,
      "rift": 3258,
      "Ġstab": 3259,
      "Ġstoop": 3260,
      "idings": 3261,
      "ract": 3262,
      "arden": 3263,
      "Ġspe": 3264,
      "Ġspake": 3265,
      "Ġspring": 3266,
      "ilia": 3267,
      "ĠCatesby": 3268,
      "Ġknave": 3269,
      "AND": 3270,
      "Ġvice": 3271,
      "aste": 3272,
      "Ġshore": 3273,
      "Ġproof": 3274,
      "Ġblest": 3275,
      "Ġblind": 3276,
      "ement": 3277,
      "Ġsirrah": 3278,
      "Ġunl": 3279,
      "Ġquestion": 3280,
      "Ġjoint": 3281,
      "cians": 3282,
      "ĠWe": 3283,
      "ĠAl": 3284,
      "ĠAumerle": 3285,
      "Ġhonesty": 3286,
      "ursed": 3287,
      "Ġleaves": 3288,
      "Ġtwice": 3289,
      "aper": 3290,
      "ĠKeeper": 3291,
      "Ġprevent": 3292,
      "OMAS": 3293,
      "there": 3294,
      "ĠMars": 3295,
      "Ġrepent": 3296,
      "Ġtraitors": 3297,
      "twixt": 3298,
      "Ġimport": 3299,
      "Ġwrongs": 3300,
      "Ġburied": 3301,
      "ealous": 3302,
      "place": 3303,
      "Ġreasons": 3304,
      "Alack": 3305,
      "Ġsenate": 3306,
      "Ġgreen": 3307,
      "Ġaffair": 3308,
      "acher": 3309,
      "Ġchoice": 3310,
      "azed": 3311,
      "Ġdivine": 3312,
      "ĠCorioli": 3313,
      "Ġwhilst": 3314,
      "Ġstop": 3315,
      "Ġtyran": 3316,
      "Ġprophe": 3317,
      "Ġembrace": 3318,
      "Ġmalice": 3319,
      "BRAKEN": 3320,
      "ĠPlantagenet": 3321,
      "Ġsacred": 3322,
      "Ġfiery": 3323,
      "Ġinnocent": 3324,
      "ĠPaulina": 3325,
      "Ġleng": 3326,
      "ĠPrince": 3327,
      "Ġsafety": 3328,
      "ĠCominius": 3329,
      "BRAKENBURY": 3330,
      "?'": 3331,
      "Ad": 3332,
      "DER": 3333,
      "DON": 3334,
      "Edward": 3335,
      "GOR": 3336,
      "Hence": 3337,
      "Ind": 3338,
      "MIST": 3339,
      "Once": 3340,
      "Richard": 3341,
      "RESS": 3342,
      "cha": 3343,
      "draw": 3344,
      "eld": 3345,
      "go": 3346,
      "mn": 3347,
      "my": 3348,
      "more": 3349,
      "nat": 3350,
      "op": 3351,
      "oly": 3352,
      "oard": 3353,
      "pet": 3354,
      "port": 3355,
      "poll": 3356,
      "sic": 3357,
      "would": 3358,
      "Ġed": 3359,
      "ĠTo": 3360,
      "Ġavo": 3361,
      "Ġsits": 3362,
      "inous": 3363,
      "Ġwag": 3364,
      "Ġwings": 3365,
      "rehe": 3366,
      "Ġbark": 3367,
      "orry": 3368,
      "Ġfury": 3369,
      "Ġfinger": 3370,
      "erset": 3371,
      "itol": 3372,
      "Ġcustom": 3373,
      "enen": 3374,
      "anch": 3375,
      "omerset": 3376,
      "Ġgross": 3377,
      "Ġgarden": 3378,
      "Ġinform": 3379,
      "edious": 3380,
      "Ġused": 3381,
      "Ġweeds": 3382,
      "Ġele": 3383,
      "Ġeag": 3384,
      "Ġstones": 3385,
      "Ġdec": 3386,
      "Ġdoor": 3387,
      "Ġnose": 3388,
      "Ġallow": 3389,
      "think": 3390,
      "Ġanger": 3391,
      "ardine": 3392,
      "Ġloath": 3393,
      "Ġloyal": 3394,
      "ellow": 3395,
      "Ġfares": 3396,
      "Ġnecess": 3397,
      "Ġknight": 3398,
      "ctise": 3399,
      "Ġshr": 3400,
      "Ġoracle": 3401,
      "ĠOVER": 3402,
      "Myself": 3403,
      "hysic": 3404,
      "Ġmayor": 3405,
      "elve": 3406,
      "Ġhollow": 3407,
      "Ġsail": 3408,
      "Ġplague": 3409,
      "unning": 3410,
      "Ġround": 3411,
      "Ġfright": 3412,
      "icked": 3413,
      "Without": 3414,
      "Ġalways": 3415,
      "Ġrob": 3416,
      "Ġrock": 3417,
      "Ġwherein": 3418,
      "Ġdesign": 3419,
      "Wherein": 3420,
      "aughters": 3421,
      "Ġadieu": 3422,
      "Ġcommend": 3423,
      "Ġclaim": 3424,
      "Ġprevail": 3425,
      "Ġprayer": 3426,
      "PETER": 3427,
      "Ġplead": 3428,
      "Ġperceive": 3429,
      "Ġtroth": 3430,
      "Ġrude": 3431,
      "Ġtongues": 3432,
      "Ġsubst": 3433,
      "Ġsmile": 3434,
      "Ġimprison": 3435,
      "Ġcares": 3436,
      "GREGOR": 3437,
      "Ġdrawn": 3438,
      "Ġempt": 3439,
      "Ġwanton": 3440,
      "Ġassist": 3441,
      "unts": 3442,
      "Ġtempt": 3443,
      "Ġdeserve": 3444,
      "Ġdelight": 3445,
      "ĠCapitol": 3446,
      "Ġpractise": 3447,
      "Ġcheek": 3448,
      "Ġabsence": 3449,
      "ĠThomas": 3450,
      "Ġdrop": 3451,
      "Ġcreature": 3452,
      "Ġtrumpets": 3453,
      "Ġutter": 3454,
      "Ġlangu": 3455,
      "Ġignorant": 3456,
      "Brother": 3457,
      "Ġrotten": 3458,
      "Ġremedy": 3459,
      "Ġcirc": 3460,
      "ĠBarnardine": 3461,
      "DERBY": 3462,
      "DONE": 3463,
      "Indeed": 3464,
      "MISTRESS": 3465,
      "enenius": 3466,
      "ĠOVERDONE": 3467,
      "GREGORY": 3468,
      "Art": 3469,
      "CH": 3470,
      "Dost": 3471,
      "FORD": 3472,
      "OX": 3473,
      "Poor": 3474,
      "Res": 3475,
      "RICH": 3476,
      "SOM": 3477,
      "Turn": 3478,
      "VAL": 3479,
      "act": 3480,
      "dy": 3481,
      "eous": 3482,
      "mion": 3483,
      "sing": 3484,
      "thi": 3485,
      "what": 3486,
      "yard": 3487,
      "Ġes": 3488,
      "ĠWhere": 3489,
      "Ġtune": 3490,
      "Ġtidings": 3491,
      "Ġtedious": 3492,
      "held": 3493,
      "Ġaim": 3494,
      "Ġaught": 3495,
      "Ġship": 3496,
      "Ġsens": 3497,
      "Ġwent": 3498,
      "Ġwont": 3499,
      "Ġwives": 3500,
      "Ġwicked": 3501,
      "haps": 3502,
      "isa": 3503,
      "ises": 3504,
      "onounce": 3505,
      "Ġdur": 3506,
      "Ġcre": 3507,
      "Ġcell": 3508,
      "Ġcure": 3509,
      "Ġcarry": 3510,
      "Ġcries": 3511,
      "esy": 3512,
      "Ġnumber": 3513,
      "Ġlar": 3514,
      "Ġloud": 3515,
      "Ġthrust": 3516,
      "Ġhit": 3517,
      "Ġhid": 3518,
      "Ġpil": 3519,
      "Ġpair": 3520,
      "othe": 3521,
      "Ġbecomes": 3522,
      "cend": 3523,
      "utes": 3524,
      "iment": 3525,
      "rious": 3526,
      "Ġstar": 3527,
      "Ġstat": 3528,
      "Ġsteed": 3529,
      "ashi": 3530,
      "Ġreceive": 3531,
      "Ġasleep": 3532,
      "Ġdew": 3533,
      "Ġdeceived": 3534,
      "Ġdeposed": 3535,
      "Ġshar": 3536,
      "this": 3537,
      "ards": 3538,
      "hant": 3539,
      "Ġvantage": 3540,
      "ERIA": 3541,
      "ERSET": 3542,
      "ĠMusic": 3543,
      "Ġconj": 3544,
      "ongs": 3545,
      "ĠGrey": 3546,
      "Ġsheep": 3547,
      "Ġtherein": 3548,
      "ĠSic": 3549,
      "ĠSomerset": 3550,
      "ĠVerona": 3551,
      "Ġjealous": 3552,
      "Ġshouldst": 3553,
      "Ġproper": 3554,
      "Ġras": 3555,
      "Ġoutward": 3556,
      "Ġwhole": 3557,
      "Ġoffend": 3558,
      "ĠYour": 3559,
      "Ġalas": 3560,
      "Ġheav": 3561,
      "Ġearn": 3562,
      "eeth": 3563,
      "Ġmeaning": 3564,
      "aced": 3565,
      "Ġchief": 3566,
      "Ġbegins": 3567,
      "ĠJove": 3568,
      "Ġruin": 3569,
      "loved": 3570,
      "ission": 3571,
      "Ġresign": 3572,
      "Ġfollows": 3573,
      "Ġtread": 3574,
      "Ġtreacher": 3575,
      "ethought": 3576,
      "Ġbanished": 3577,
      "Ġpassing": 3578,
      "Ġwoful": 3579,
      "Ġdevise": 3580,
      "Ġfollowers": 3581,
      "Ġfools": 3582,
      "Ġmaids": 3583,
      "Show": 3584,
      "Ġadvise": 3585,
      "Ġgives": 3586,
      "itting": 3587,
      "Ġrememb": 3588,
      "Ġawake": 3589,
      "Ġborne": 3590,
      "Ġsupper": 3591,
      "Ġlamb": 3592,
      "Ġcondu": 3593,
      "aze": 3594,
      "Ġsilence": 3595,
      "Ġpossible": 3596,
      "Having": 3597,
      "Ġprofess": 3598,
      "Ġdespite": 3599,
      "MOND": 3600,
      "Ġgarments": 3601,
      "Ġcastle": 3602,
      "Ġthrive": 3603,
      "Ġexpress": 3604,
      "Ġundone": 3605,
      "Ġdreadful": 3606,
      "Ġbabe": 3607,
      "Ġprotect": 3608,
      "Besides": 3609,
      "Ġbroken": 3610,
      "Ġviolent": 3611,
      "ĠChristian": 3612,
      "Ġpubl": 3613,
      "Ġoccasion": 3614,
      "Ġnobles": 3615,
      "Into": 3616,
      "ursday": 3617,
      "Ġfatal": 3618,
      "Ġbelly": 3619,
      "Ġauthority": 3620,
      "Ġsimple": 3621,
      "Ġfarther": 3622,
      "Ġthroat": 3623,
      "Ġbenefit": 3624,
      "pinion": 3625,
      "Ġaffairs": 3626,
      "pollo": 3627,
      "OXFORD": 3628,
      "RICHMOND": 3629,
      "SOMERSET": 3630,
      "VALERIA": 3631,
      "mione": 3632,
      "AMIL": 3633,
      "BUS": 3634,
      "Great": 3635,
      "HY": 3636,
      "Hast": 3637,
      "LIUS": 3638,
      "MOP": 3639,
      "MAMIL": 3640,
      "Per": 3641,
      "Tybalt": 3642,
      "Tailor": 3643,
      "Very": 3644,
      "app": 3645,
      "cing": 3646,
      "can": 3647,
      "eg": 3648,
      "fl": 3649,
      "father": 3650,
      "gle": 3651,
      "iond": 3652,
      "oat": 3653,
      "pr": 3654,
      "ron": 3655,
      "son": 3656,
      "ub": 3657,
      "Ġer": 3658,
      "Ġir": 3659,
      "ĠThere": 3660,
      "Ġtort": 3661,
      "Ġtaste": 3662,
      "Ġsan": 3663,
      "Ġsix": 3664,
      "Ġsorry": 3665,
      "Ġwine": 3666,
      "Ġwander": 3667,
      "Ġband": 3668,
      "Ġbond": 3669,
      "erved": 3670,
      "itude": 3671,
      "Ġdet": 3672,
      "Ġdue": 3673,
      "Ġcal": 3674,
      "Ġcam": 3675,
      "Ġcunning": 3676,
      "ene": 3677,
      "enn": 3678,
      "Ġnine": 3679,
      "Ġnames": 3680,
      "Ġlend": 3681,
      "arch": 3682,
      "Ġtop": 3683,
      "Ġpin": 3684,
      "Ġpawn": 3685,
      "Ġpaper": 3686,
      "Ġphysic": 3687,
      "Ġgain": 3688,
      "Ġgage": 3689,
      "Ġbelike": 3690,
      "Ġbeheld": 3691,
      "Ġinfect": 3692,
      "ldom": 3693,
      "eding": 3694,
      "utation": 3695,
      "Ġweight": 3696,
      "Ġweap": 3697,
      "ills": 3698,
      "Ġequ": 3699,
      "enture": 3700,
      "Ġstore": 3701,
      "Ġstep": 3702,
      "Ġstock": 3703,
      "Ġstuff": 3704,
      "Ġrenown": 3705,
      "rand": 3706,
      "Ġlip": 3707,
      "Ġdeare": 3708,
      "room": 3709,
      "eave": 3710,
      "usion": 3711,
      "iffe": 3712,
      "Ġseas": 3713,
      "Ġsup": 3714,
      "run": 3715,
      "Ġange": 3716,
      "Ġlod": 3717,
      "ello": 3718,
      "Ġspend": 3719,
      "Ġspare": 3720,
      "hop": 3721,
      "Ġvan": 3722,
      "ouses": 3723,
      "Ġshut": 3724,
      "ustice": 3725,
      "ĠMOW": 3726,
      "ĠMenenius": 3727,
      "olix": 3728,
      "Ġsway": 3729,
      "Ġbrook": 3730,
      "Ġkingly": 3731,
      "ĠBona": 3732,
      "Ġunnat": 3733,
      "ĠHarry": 3734,
      "Ġquit": 3735,
      "imely": 3736,
      "Ġenvious": 3737,
      "Ġrash": 3738,
      "Ġdisd": 3739,
      "ABHOR": 3740,
      "Ġroom": 3741,
      "Ġexile": 3742,
      "Ġexcell": 3743,
      "Ġdesert": 3744,
      "Ġgentlewoman": 3745,
      "Ġflight": 3746,
      "Ġtwelve": 3747,
      "Ġparts": 3748,
      "Ġprey": 3749,
      "THOMAS": 3750,
      "Ġperil": 3751,
      "Ġperish": 3752,
      "Ġtrans": 3753,
      "iteous": 3754,
      "ĠFriar": 3755,
      "Ġwhither": 3756,
      "swain": 3757,
      "Ġuntil": 3758,
      "Ġaffect": 3759,
      "Ġlean": 3760,
      "Ġlegs": 3761,
      "orses": 3762,
      "Ġkeeps": 3763,
      "Ġaccus": 3764,
      "STANLEY": 3765,
      "Ġprize": 3766,
      "Ġpursu": 3767,
      "Ġchair": 3768,
      "Ġcountenance": 3769,
      "Ġpleased": 3770,
      "ounty": 3771,
      "Ġhumbly": 3772,
      "Ġcourtesy": 3773,
      "Ġadvantage": 3774,
      "Ġcurst": 3775,
      "ploy": 3776,
      "Ġspirits": 3777,
      "Two": 3778,
      "Ġintend": 3779,
      "Ġdenied": 3780,
      "ancy": 3781,
      "Ġdisposition": 3782,
      "Ġbetwixt": 3783,
      "Ġsilver": 3784,
      "Ġdelay": 3785,
      "Ġresolve": 3786,
      "ĠThursday": 3787,
      "Ġwedding": 3788,
      "Ġsighs": 3789,
      "Ġhurt": 3790,
      "BRAY": 3791,
      "Ġcolour": 3792,
      "Ġclear": 3793,
      "Ġowe": 3794,
      "Ġprepared": 3795,
      "Ġdamned": 3796,
      "Ġshadow": 3797,
      "Ġpleasant": 3798,
      "Ġforsworn": 3799,
      "Ġstorm": 3800,
      "Death": 3801,
      "Ġthreaten": 3802,
      "Ġconquer": 3803,
      "Ġpunish": 3804,
      "ĠCaius": 3805,
      "Ġcontrary": 3806,
      "EXETER": 3807,
      "Ġpalace": 3808,
      "Ġdinner": 3809,
      "Ġneighbour": 3810,
      "Ġmiserable": 3811,
      "Ġspeci": 3812,
      "Ġempty": 3813,
      "ĠMusician": 3814,
      "BUSHY": 3815,
      "MOPSA": 3816,
      "MAMILLIUS": 3817,
      "iondello": 3818,
      "Ġsanct": 3819,
      "ĠMOWBRAY": 3820,
      "olixenes": 3821,
      "ABHORSON": 3822,
      "CY": 3823,
      "Cousin": 3824,
      "Ed": 3825,
      "Know": 3826,
      "None": 3827,
      "Nothing": 3828,
      "Pre": 3829,
      "Ret": 3830,
      "Right": 3831,
      "Rem": 3832,
      "Rep": 3833,
      "Sc": 3834,
      "Sha": 3835,
      "Widow": 3836,
      "bow": 3837,
      "born": 3838,
      "grace": 3839,
      "hor": 3840,
      "hore": 3841,
      "lar": 3842,
      "mity": 3843,
      "oc": 3844,
      "oke": 3845,
      "par": 3846,
      "ping": 3847,
      "pic": 3848,
      "pass": 3849,
      "tune": 3850,
      "urious": 3851,
      "we": 3852,
      "wise": 3853,
      "yond": 3854,
      "ĠWhen": 3855,
      "Ġtut": 3856,
      "Ġtable": 3857,
      "Ġscept": 3858,
      "Ġmiss": 3859,
      "Ġmurderer": 3860,
      "Ġmaking": 3861,
      "Ġmotion": 3862,
      "Ġmourn": 3863,
      "Ġwot": 3864,
      "Ġwood": 3865,
      "Ġwol": 3866,
      "Ġwond": 3867,
      "rease": 3868,
      "Ġbas": 3869,
      "Ġbare": 3870,
      "Ġball": 3871,
      "Ġbud": 3872,
      "ising": 3873,
      "Ġfle": 3874,
      "Ġfro": 3875,
      "Ġfee": 3876,
      "Ġfashi": 3877,
      "erve": 3878,
      "Ġdi": 3879,
      "Ġdign": 3880,
      "Ġdies": 3881,
      "Ġdag": 3882,
      "Ġdaughters": 3883,
      "Ġcens": 3884,
      "Ġcup": 3885,
      "Ġcalm": 3886,
      "ency": 3887,
      "Ġnaked": 3888,
      "Ġyonder": 3889,
      "Ġopinion": 3890,
      "Ġpure": 3891,
      "Ġport": 3892,
      "Ġpainted": 3893,
      "Ġpiteous": 3894,
      "Ġheed": 3895,
      "ote": 3896,
      "ane": 3897,
      "Ġgate": 3898,
      "Ġbew": 3899,
      "Ġbeloved": 3900,
      "sequ": 3901,
      "irg": 3902,
      "Ġmend": 3903,
      "ourish": 3904,
      "Ġweigh": 3905,
      "rib": 3906,
      "Ġstory": 3907,
      "Ġreward": 3908,
      "urance": 3909,
      "Ġdebt": 3910,
      "Ġones": 3911,
      "ARCH": 3912,
      "amed": 3913,
      "Ġseest": 3914,
      "Three": 3915,
      "ruly": 3916,
      "thou": 3917,
      "Ġfail": 3918,
      "ERCY": 3919,
      "que": 3920,
      "Ġgoodness": 3921,
      "Ġpronounce": 3922,
      "Ġcomple": 3923,
      "ĠMessenger": 3924,
      "Ġamb": 3925,
      "Ġamen": 3926,
      "outs": 3927,
      "oler": 3928,
      "Ġhatred": 3929,
      "Ġtheirs": 3930,
      "ĠBiondello": 3931,
      "Ġarg": 3932,
      "igence": 3933,
      "Ġquench": 3934,
      "Ġhopes": 3935,
      "cio": 3936,
      "cian": 3937,
      "Ġseeing": 3938,
      "ĠPro": 3939,
      "ĠPeter": 3940,
      "ĠPisa": 3941,
      "ĠPolixenes": 3942,
      "ĠPERCY": 3943,
      "umble": 3944,
      "Ġplot": 3945,
      "Ġdiss": 3946,
      "Ġexpect": 3947,
      "Ġslow": 3948,
      "Ġado": 3949,
      "THAS": 3950,
      "ĠDid": 3951,
      "Ġperfect": 3952,
      "Ġperpet": 3953,
      "Ġwrath": 3954,
      "Thanks": 3955,
      "lesome": 3956,
      "ĠFl": 3957,
      "Ġremains": 3958,
      "Ġcrowns": 3959,
      "Ġhark": 3960,
      "Ġcourage": 3961,
      "Ġwits": 3962,
      "clock": 3963,
      "Ġaccess": 3964,
      "Ġaccuse": 3965,
      "Ġfolly": 3966,
      "Only": 3967,
      "Ġends": 3968,
      "Ġendure": 3969,
      "Ġneedful": 3970,
      "Still": 3971,
      "Ġbodies": 3972,
      "Ġjoys": 3973,
      "Ġjoyful": 3974,
      "Ġfortunes": 3975,
      "Ġmistake": 3976,
      "Ġnatural": 3977,
      "Ġhappiness": 3978,
      "Ġmisery": 3979,
      "Ġundertake": 3980,
      "Ġchide": 3981,
      "Ġattempt": 3982,
      "Ġadvance": 3983,
      "Ġcurses": 3984,
      "Ġemploy": 3985,
      "Ġassurance": 3986,
      "Ġpersu": 3987,
      "Ġdiscontent": 3988,
      "Ġsenators": 3989,
      "Ġcrack": 3990,
      "Ġintent": 3991,
      "Ġsometime": 3992,
      "Ġwounded": 3993,
      "Ġspoken": 3994,
      "Ġdrum": 3995,
      "Ġmarket": 3996,
      "cape": 3997,
      "Ġwaters": 3998,
      "Ġcursed": 3999,
      "Ġinstruct": 4000,
      "Ġinstrument": 4001,
      "ĠNap": 4002,
      "ĠRivers": 4003,
      "Ġterror": 4004,
      "Ġresolved": 4005,
      "chance": 4006,
      "Ġwhiles": 4007,
      "Ġcorrupt": 4008,
      "ney": 4009,
      "Ġburthen": 4010,
      "Ġgriev": 4011,
      "Ġduked": 4012,
      "Ġaccept": 4013,
      "Ġgroan": 4014,
      "BALTHAS": 4015,
      "Ġcolours": 4016,
      "Ġpenit": 4017,
      "Ġprotest": 4018,
      "Ġprinces": 4019,
      "Ġprincess": 4020,
      "ĠStanley": 4021,
      "Ġgovernment": 4022,
      "Prithee": 4023,
      "Ġobedience": 4024,
      "Ġpetition": 4025,
      "Ġsolemn": 4026,
      "Believe": 4027,
      "Ġcontinue": 4028,
      "Ġcredit": 4029,
      "Ġseveral": 4030,
      "hearted": 4031,
      "Ġwreck": 4032,
      "Ġlanguage": 4033,
      "Ġcircum": 4034,
      "Ġdurst": 4035,
      "Ġremembrance": 4036,
      "Ġpublic": 4037,
      "Ġunnatural": 4038,
      "picion": 4039,
      "Ġdukedom": 4040,
      "BALTHASAR": 4041,
      "?--": 4042,
      "Ar": 4043,
      "App": 4044,
      "AEd": 4045,
      "Bear": 4046,
      "Boat": 4047,
      "Father": 4048,
      "FOL": 4049,
      "Heaven": 4050,
      "Love": 4051,
      "Might": 4052,
      "Mark": 4053,
      "OS": 4054,
      "Post": 4055,
      "Page": 4056,
      "Save": 4057,
      "afe": 4058,
      "bear": 4059,
      "do": 4060,
      "dds": 4061,
      "ex": 4062,
      "fer": 4063,
      "gers": 4064,
      "how": 4065,
      "ipe": 4066,
      "just": 4067,
      "lic": 4068,
      "oe": 4069,
      "oved": 4070,
      "ped": 4071,
      "pro": 4072,
      "sc": 4073,
      "same": 4074,
      "time": 4075,
      "uary": 4076,
      "val": 4077,
      "vours": 4078,
      "yr": 4079,
      "ĠNay": 4080,
      "ĠThey": 4081,
      "Ġtest": 4082,
      "Ġteeth": 4083,
      "hest": 4084,
      "Ġsink": 4085,
      "Ġsins": 4086,
      "Ġmag": 4087,
      "Ġmile": 4088,
      "ination": 4089,
      "happy": 4090,
      "ishop": 4091,
      "Ġfame": 4092,
      "erd": 4093,
      "ita": 4094,
      "Ġcock": 4095,
      "Ġcease": 4096,
      "ences": 4097,
      "Ġnought": 4098,
      "Ġled": 4099,
      "aries": 4100,
      "Ġhost": 4101,
      "Ġhunt": 4102,
      "Ġhouses": 4103,
      "Ġhorses": 4104,
      "Ġodd": 4105,
      "Ġobs": 4106,
      "Ġodds": 4107,
      "Ġtomb": 4108,
      "Ġpol": 4109,
      "Ġpowers": 4110,
      "strous": 4111,
      "omp": 4112,
      "omen": 4113,
      "atic": 4114,
      "atience": 4115,
      "Ġbeyond": 4116,
      "Ġhaz": 4117,
      "uted": 4118,
      "Ġmere": 4119,
      "Ġisle": 4120,
      "Ġisland": 4121,
      "ourage": 4122,
      "Ġeast": 4123,
      "Ġits": 4124,
      "Ġkin": 4125,
      "idence": 4126,
      "Ġrepe": 4127,
      "Ġrealm": 4128,
      "Ġshape": 4129,
      "uses": 4130,
      "ified": 4131,
      "Ġseize": 4132,
      "Those": 4133,
      "Ġspite": 4134,
      "Ġfaces": 4135,
      "ĠCan": 4136,
      "ĠCal": 4137,
      "ĠROS": 4138,
      "Ġvault": 4139,
      "Ġvirg": 4140,
      "Ġshun": 4141,
      "ants": 4142,
      "Ġcomest": 4143,
      "Ġmanners": 4144,
      "ĠEl": 4145,
      "icular": 4146,
      "Ġconc": 4147,
      "ieved": 4148,
      "Ġblock": 4149,
      "Ġblush": 4150,
      "ĠGood": 4151,
      "ared": 4152,
      "arent": 4153,
      "olute": 4154,
      "Ġhereafter": 4155,
      "Ġswallow": 4156,
      "Ġbrings": 4157,
      "ĠSo": 4158,
      "ĠBl": 4159,
      "elt": 4160,
      "Ġqual": 4161,
      "Ġjour": 4162,
      "Young": 4163,
      "akest": 4164,
      "ument": 4165,
      "Ġfathers": 4166,
      "ĠWho": 4167,
      "Ġenmity": 4168,
      "Ġring": 4169,
      "CAS": 4170,
      "ĠYet": 4171,
      "Ġalter": 4172,
      "Ġlooking": 4173,
      "Ġfriendly": 4174,
      "Ġslay": 4175,
      "Ġflies": 4176,
      "ĠTake": 4177,
      "Ġfairly": 4178,
      "tled": 4179,
      "Ġadvers": 4180,
      "Ġclo": 4181,
      "Ġwrite": 4182,
      "Ġtrade": 4183,
      "Ġways": 4184,
      "Ġscope": 4185,
      "Ġscene": 4186,
      "aintain": 4187,
      "they": 4188,
      "Ġkey": 4189,
      "ĠFrench": 4190,
      "Ġapprehe": 4191,
      "Ġcontract": 4192,
      "Ġwhore": 4193,
      "Ġarmour": 4194,
      "ctions": 4195,
      "Ġuntimely": 4196,
      "ression": 4197,
      "Ġimm": 4198,
      "Ġrepair": 4199,
      "Ġrule": 4200,
      "Ġleads": 4201,
      "Ġslept": 4202,
      "Ġaccord": 4203,
      "Ġpurcha": 4204,
      "Ġcompass": 4205,
      "orset": 4206,
      "Ġseeming": 4207,
      "Ġbrain": 4208,
      "Ġglorious": 4209,
      "Ġimposs": 4210,
      "Ġpassage": 4211,
      "Ġmaiden": 4212,
      "Ġhateful": 4213,
      "Ġstrew": 4214,
      "Ġturns": 4215,
      "uteous": 4216,
      "Ġinstant": 4217,
      "Ġboar": 4218,
      "Ġwants": 4219,
      "NORFOL": 4220,
      "Ġdiscover": 4221,
      "Ġcommanded": 4222,
      "Ġhanging": 4223,
      "Ġcontented": 4224,
      "Ġdares": 4225,
      "Ġfreely": 4226,
      "Ġgrey": 4227,
      "Ġservices": 4228,
      "Ġtemper": 4229,
      "Ġdrums": 4230,
      "Ġcholer": 4231,
      "Ġgrows": 4232,
      "Ġdeserves": 4233,
      "noon": 4234,
      "ĠLucio": 4235,
      "Ġgranted": 4236,
      "Comm": 4237,
      "Ġterms": 4238,
      "Ġincrease": 4239,
      "Ġresolution": 4240,
      "Ġshortly": 4241,
      "Ġvex": 4242,
      "Ġpraise": 4243,
      "Ġabsent": 4244,
      "Ġvenom": 4245,
      "Ġdrops": 4246,
      "Ġprivile": 4247,
      "Ġrespected": 4248,
      "Ġframe": 4249,
      "Beseech": 4250,
      "Ġapproach": 4251,
      "Ġcomplain": 4252,
      "Ġtorment": 4253,
      "Ġunknown": 4254,
      "Ġprosperous": 4255,
      "DORCAS": 4256,
      "Ġsuspicion": 4257,
      "Ġreverend": 4258,
      "Ġapparel": 4259,
      "Ġcaptain": 4260,
      "Ġdegree": 4261,
      "ĠHermione": 4262,
      "Ġsmooth": 4263,
      "Ġlarge": 4264,
      "Ġsharp": 4265,
      "Ġearnest": 4266,
      "Ġcamest": 4267,
      "Ġdisdain": 4268,
      "Ġexcellent": 4269,
      "Ġsceptre": 4270,
      "Ġdagger": 4271,
      "ĠNaples": 4272,
      "Boatswain": 4273,
      "ĠROSS": 4274,
      "NORFOLK": 4275,
      "Amen": 4276,
      "Boy": 4277,
      "Came": 4278,
      "Cons": 4279,
      "DIN": 4280,
      "Dear": 4281,
      "FER": 4282,
      "GH": 4283,
      "Ghost": 4284,
      "Has": 4285,
      "Long": 4286,
      "Mistress": 4287,
      "NS": 4288,
      "Please": 4289,
      "RR": 4290,
      "Roman": 4291,
      "Set": 4292,
      "Wilt": 4293,
      "Worthy": 4294,
      "aces": 4295,
      "aily": 4296,
      "bri": 4297,
      "bra": 4298,
      "dis": 4299,
      "fret": 4300,
      "gl": 4301,
      "gar": 4302,
      "iven": 4303,
      "iate": 4304,
      "ipp": 4305,
      "kin": 4306,
      "ker": 4307,
      "law": 4308,
      "pul": 4309,
      "uce": 4310,
      "wife": 4311,
      "ĠTherefore": 4312,
      "Ġtame": 4313,
      "Ġtaught": 4314,
      "Ġtap": 4315,
      "Ġtide": 4316,
      "Ġable": 4317,
      "Ġsqu": 4318,
      "Ġsouth": 4319,
      "Ġmor": 4320,
      "Ġmill": 4321,
      "Ġmessenger": 4322,
      "iny": 4323,
      "reg": 4324,
      "reland": 4325,
      "reme": 4326,
      "Ġbird": 4327,
      "Ġbury": 4328,
      "isper": 4329,
      "Ġfig": 4330,
      "Ġfurn": 4331,
      "itus": 4332,
      "Ġdig": 4333,
      "Ġdress": 4334,
      "Ġdaily": 4335,
      "Ġchat": 4336,
      "Ġcatch": 4337,
      "Ġlark": 4338,
      "Ġthorn": 4339,
      "Ġthief": 4340,
      "Ġparent": 4341,
      "ĠIreland": 4342,
      "ances": 4343,
      "omans": 4344,
      "ater": 4345,
      "ature": 4346,
      "atcl": 4347,
      "Ġbef": 4348,
      "Ġbeard": 4349,
      "Ġbethink": 4350,
      "Ġmeant": 4351,
      "Ġweather": 4352,
      "Ġwept": 4353,
      "ades": 4354,
      "ricians": 4355,
      "Ġstol": 4356,
      "Ġstamp": 4357,
      "Ġrej": 4358,
      "Ġrecom": 4359,
      "Ġrevol": 4360,
      "Ġlion": 4361,
      "aline": 4362,
      "Ġwilling": 4363,
      "Ġwillingly": 4364,
      "Ġnobl": 4365,
      "Ġnobly": 4366,
      "andal": 4367,
      "Ġseason": 4368,
      "Ġsull": 4369,
      "Ġsuck": 4370,
      "Ġspr": 4371,
      "Ġspur": 4372,
      "ĠCo": 4373,
      "ĠCons": 4374,
      "Ġknife": 4375,
      "ĠRos": 4376,
      "ĠRomans": 4377,
      "Ġvows": 4378,
      "Ġcomb": 4379,
      "ĠMay": 4380,
      "ĠMil": 4381,
      "Ġamazed": 4382,
      "Ġconce": 4383,
      "Ġconceit": 4384,
      "Ġconstant": 4385,
      "ember": 4386,
      "Help": 4387,
      "Ġlovely": 4388,
      "Ġswell": 4389,
      "ĠST": 4390,
      "ĠBe": 4391,
      "ĠBer": 4392,
      "Ġunless": 4393,
      "Ġworn": 4394,
      "Ġworthi": 4395,
      "Ġjew": 4396,
      "Ġmuster": 4397,
      "Ġprovo": 4398,
      "ĠPray": 4399,
      "Ġruth": 4400,
      "ĠAd": 4401,
      "ĠApollo": 4402,
      "Ġdisper": 4403,
      "Ġabhor": 4404,
      "Ġroar": 4405,
      "Ġrogue": 4406,
      "Ġtells": 4407,
      "Ġwhereof": 4408,
      "Ġwarlike": 4409,
      "Ġhasty": 4410,
      "Ġfears": 4411,
      "Ġgreatest": 4412,
      "oldier": 4413,
      "Ġparticular": 4414,
      "Ġadver": 4415,
      "Ġcommitted": 4416,
      "Ġclam": 4417,
      "ĠDo": 4418,
      "Ġperj": 4419,
      "Ġperforce": 4420,
      "Ġwrought": 4421,
      "liament": 4422,
      "Ġnorth": 4423,
      "Ġpress": 4424,
      "Ġrap": 4425,
      "Ġraise": 4426,
      "ĠFarewell": 4427,
      "Ġbegun": 4428,
      "forth": 4429,
      "ĠJack": 4430,
      "Ġconsider": 4431,
      "Ġpeers": 4432,
      "love": 4433,
      "Ġwitch": 4434,
      "Ġaccused": 4435,
      "Ġkindly": 4436,
      "Ġcompan": 4437,
      "Ġsmiles": 4438,
      "Ġcounty": 4439,
      "Ġfinds": 4440,
      "Stri": 4441,
      "Ġbraw": 4442,
      "Ġcharged": 4443,
      "Ġpassion": 4444,
      "Clarence": 4445,
      "Ġholds": 4446,
      "GREEN": 4447,
      "Ġstreets": 4448,
      "Ġbuild": 4449,
      "Ġsoundly": 4450,
      "Ġserves": 4451,
      "Ġboots": 4452,
      "Ġadvice": 4453,
      "Ġcurrent": 4454,
      "Ġrevenged": 4455,
      "Ġassured": 4456,
      "Ġsends": 4457,
      "Ġgiving": 4458,
      "Ġwinds": 4459,
      "Ġhanged": 4460,
      "Ġdarest": 4461,
      "Ġintell": 4462,
      "Ġsupposed": 4463,
      "Ġafford": 4464,
      "ALONS": 4465,
      "Whither": 4466,
      "Ġhardly": 4467,
      "Ġprofit": 4468,
      "Ġparliament": 4469,
      "Ġrecord": 4470,
      "Ġveins": 4471,
      "Ġwaste": 4472,
      "Ġstopp": 4473,
      "Until": 4474,
      "Ġpieces": 4475,
      "Ġwait": 4476,
      "Ġgarland": 4477,
      "Ġgrieve": 4478,
      "Ġsky": 4479,
      "Ġforbear": 4480,
      "ĠPomfret": 4481,
      "Ġdirect": 4482,
      "Ġgroans": 4483,
      "Ġthrice": 4484,
      "Ġestate": 4485,
      "erns": 4486,
      "TYRR": 4487,
      "Ġoppos": 4488,
      "Ġdestroy": 4489,
      "About": 4490,
      "Ġurged": 4491,
      "Ġaffections": 4492,
      "Ġfamous": 4493,
      "Ġhaply": 4494,
      "DORSET": 4495,
      "Supp": 4496,
      "Ġlusty": 4497,
      "Ġelder": 4498,
      "Ġstudy": 4499,
      "Ġcounterfeit": 4500,
      "Gentlemen": 4501,
      "Ġarrived": 4502,
      "Ġbehalf": 4503,
      "ĠMarshal": 4504,
      "Ġavoid": 4505,
      "Ġimprisonment": 4506,
      "untsman": 4507,
      "Ġrascal": 4508,
      "Ġtreacherous": 4509,
      "Ġconduct": 4510,
      "Ġprotector": 4511,
      "Ġspecial": 4512,
      "Ġsanctuary": 4513,
      "Ġperpetual": 4514,
      "Ġgrievous": 4515,
      "AEdile": 4516,
      "Ġvirgin": 4517,
      "Ġjourney": 4518,
      "DINAND": 4519,
      "FERDINAND": 4520,
      "atcliff": 4521,
      "ĠConspir": 4522,
      "ALONSO": 4523,
      "TYRREL": 4524,
      ";--": 4525,
      "Acc": 4526,
      "Bring": 4527,
      "Coriol": 4528,
      "Keep": 4529,
      "Leave": 4530,
      "Makes": 4531,
      "Vols": 4532,
      "af": 4533,
      "cure": 4534,
      "des": 4535,
      "dig": 4536,
      "eat": 4537,
      "erer": 4538,
      "fess": 4539,
      "fellow": 4540,
      "faced": 4541,
      "grim": 4542,
      "groom": 4543,
      "ib": 4544,
      "iving": 4545,
      "ienn": 4546,
      "lanch": 4547,
      "master": 4548,
      "mory": 4549,
      "maid": 4550,
      "nal": 4551,
      "sha": 4552,
      "ser": 4553,
      "some": 4554,
      "ties": 4555,
      "upt": 4556,
      "vior": 4557,
      "wear": 4558,
      "xeter": 4559,
      "zz": 4560,
      "Ġz": 4561,
      "Ġing": 4562,
      "ĠThen": 4563,
      "Ġtask": 4564,
      "Ġach": 4565,
      "Ġapt": 4566,
      "Ġaunt": 4567,
      "Ġsy": 4568,
      "Ġsal": 4569,
      "Ġsire": 4570,
      "Ġmult": 4571,
      "Ġmaintain": 4572,
      "Ġwing": 4573,
      "Ġwide": 4574,
      "Ġwhip": 4575,
      "Ġwaking": 4576,
      "reen": 4577,
      "Ġbade": 4578,
      "isbury": 4579,
      "Ġfi": 4580,
      "Ġfood": 4581,
      "Ġfrow": 4582,
      "Ġfun": 4583,
      "Ġfeet": 4584,
      "Ġfires": 4585,
      "Ġfancy": 4586,
      "erity": 4587,
      "erby": 4588,
      "itation": 4589,
      "onci": 4590,
      "Ġdow": 4591,
      "Ġdim": 4592,
      "Ġdri": 4593,
      "Ġdying": 4594,
      "Ġcher": 4595,
      "Ġcaught": 4596,
      "Ġcere": 4597,
      "esar": 4598,
      "essel": 4599,
      "enant": 4600,
      "Ġnail": 4601,
      "Ġlin": 4602,
      "Ġyond": 4603,
      "Ġyoke": 4604,
      "Ġthird": 4605,
      "Ġhor": 4606,
      "Ġhie": 4607,
      "Ġpi": 4608,
      "Ġpot": 4609,
      "Ġpound": 4610,
      "Ġpurse": 4611,
      "Ġpier": 4612,
      "vet": 4613,
      "ative": 4614,
      "sell": 4615,
      "Ġinqu": 4616,
      "etite": 4617,
      "eder": 4618,
      "utenant": 4619,
      "Ġmelt": 4620,
      "Ġmelanch": 4621,
      "Ġfors": 4622,
      "Ġforced": 4623,
      "Ġforfeit": 4624,
      "ourse": 4625,
      "ourth": 4626,
      "Ġevent": 4627,
      "adv": 4628,
      "aded": 4629,
      "rick": 4630,
      "Ġsting": 4631,
      "Ġstro": 4632,
      "Ġstout": 4633,
      "Ġstret": 4634,
      "Ġstroke": 4635,
      "Ġreck": 4636,
      "rac": 4637,
      "ales": 4638,
      "alisbury": 4639,
      "Ġsore": 4640,
      "Ġsooth": 4641,
      "Ġdeceit": 4642,
      "roll": 4643,
      "ested": 4644,
      "earer": 4645,
      "amb": 4646,
      "ams": 4647,
      "aming": 4648,
      "Ġsees": 4649,
      "Ġalliance": 4650,
      "Ġsue": 4651,
      "ruction": 4652,
      "ellion": 4653,
      "Ġsple": 4654,
      "ilence": 4655,
      "Ġknaves": 4656,
      "Ġvessel": 4657,
      "ulate": 4658,
      "arts": 4659,
      "nty": 4660,
      "ĠExeter": 4661,
      "icy": 4662,
      "Ġconfe": 4663,
      "Ġblunt": 4664,
      "ĠGive": 4665,
      "ares": 4666,
      "ĠLe": 4667,
      "Ġsaying": 4668,
      "ĠSoldier": 4669,
      "Ġunjust": 4670,
      "Ġunhappy": 4671,
      "ignty": 4672,
      "LIS": 4673,
      "Ġgraves": 4674,
      "ĠWell": 4675,
      "Ġenforce": 4676,
      "deem": 4677,
      "ĠAll": 4678,
      "ĠAway": 4679,
      "irect": 4680,
      "harge": 4681,
      "Ġoffended": 4682,
      "Ġdissem": 4683,
      "Ġdisgrace": 4684,
      "Ġalack": 4685,
      "Ġalike": 4686,
      "Ġalthough": 4687,
      "Ġabide": 4688,
      "Ġaboard": 4689,
      "Noble": 4690,
      "Ġrose": 4691,
      "Ġexchange": 4692,
      "Soft": 4693,
      "ages": 4694,
      "Ġdesires": 4695,
      "Ġdescend": 4696,
      "Ġslaves": 4697,
      "Ġflood": 4698,
      "Ġflatt": 4699,
      "Ġtwain": 4700,
      "ĠTitus": 4701,
      "Ġbetray": 4702,
      "Ġbetimes": 4703,
      "Ġnewly": 4704,
      "Ġparting": 4705,
      "Ġpartly": 4706,
      "Ġcalled": 4707,
      "Ġcommons": 4708,
      "Ġcommission": 4709,
      "Ġstanding": 4710,
      "Ġclim": 4711,
      "ĠDe": 4712,
      "ĠDorset": 4713,
      "ĠDerby": 4714,
      "ullus": 4715,
      "Ġwrink": 4716,
      "Ġbearing": 4717,
      "aints": 4718,
      "Ġrare": 4719,
      "thee": 4720,
      "ĠFroth": 4721,
      "Ġappeal": 4722,
      "Ġappetite": 4723,
      "Ġcontempt": 4724,
      "Ġwhisper": 4725,
      "Ġimage": 4726,
      "ĠMarian": 4727,
      "forced": 4728,
      "Ġrust": 4729,
      "Ġruled": 4730,
      "Ġhousehold": 4731,
      "Ġrestra": 4732,
      "ercy": 4733,
      "Ġsets": 4734,
      "clam": 4735,
      "osing": 4736,
      "Ġresist": 4737,
      "Ġtrick": 4738,
      "Ġputs": 4739,
      "Ġpowerful": 4740,
      "Ġchase": 4741,
      "Ġcharac": 4742,
      "Ġsmell": 4743,
      "Ġtreasure": 4744,
      "Ġbrace": 4745,
      "iety": 4746,
      "Ġmistrust": 4747,
      "Ġnative": 4748,
      "Ġboys": 4749,
      "Ġweeps": 4750,
      "Ġpatricians": 4751,
      "Ġbelow": 4752,
      "Lords": 4753,
      "Ġfalsehood": 4754,
      "Ġsovereignty": 4755,
      "ouchs": 4756,
      "Ġassure": 4757,
      "Ġsecure": 4758,
      "Twere": 4759,
      "Ġsometimes": 4760,
      "Ġoaths": 4761,
      "Ġmerit": 4762,
      "upon": 4763,
      "Ġfaithful": 4764,
      "Ġdefence": 4765,
      "Ġaffli": 4766,
      "Ġsurely": 4767,
      "should": 4768,
      "Ġsilent": 4769,
      "Ġinstruments": 4770,
      "Cannot": 4771,
      "Ġbeholding": 4772,
      "Ġreconci": 4773,
      "Ġago": 4774,
      "Ġagree": 4775,
      "Ġcorre": 4776,
      "Ġsingle": 4777,
      "Ġbreathed": 4778,
      "Ġforgive": 4779,
      "Ġweakness": 4780,
      "Ġprett": 4781,
      "Ġsickness": 4782,
      "Ġregal": 4783,
      "Ġregard": 4784,
      "Ġmouths": 4785,
      "Ġbooks": 4786,
      "Ġbarren": 4787,
      "Ġbeasts": 4788,
      "Ġtrumpet": 4789,
      "eeming": 4790,
      "Ġpitch": 4791,
      "Ġshield": 4792,
      "Ġunkind": 4793,
      "Ġtempest": 4794,
      "Ġsuspect": 4795,
      "Ġobedient": 4796,
      "Ġreverence": 4797,
      "Ġapparent": 4798,
      "Ġentertainment": 4799,
      "ĠAnti": 4800,
      "Ġdetermined": 4801,
      "Ġhelm": 4802,
      "Ġgently": 4803,
      "Ġholp": 4804,
      "Ġfairest": 4805,
      "Ġtremble": 4806,
      "shire": 4807,
      "Ġstabb": 4808,
      "Ġtyranny": 4809,
      "Ġlength": 4810,
      "Ġpilgrim": 4811,
      "ĠSicilia": 4812,
      "Ġequal": 4813,
      "Ġfashion": 4814,
      "Ġdignity": 4815,
      "Ġcomplex": 4816,
      "Ġcircumst": 4817,
      "yrrel": 4818,
      "Ġaccording": 4819,
      "Ġimpossible": 4820,
      "Ġrejo": 4821,
      "ĠRosaline": 4822,
      "ĠMayor": 4823,
      "ĠMilan": 4824,
      "Volsce": 4825,
      "ienna": 4826,
      "Ġfroward": 4827,
      "Ġmelancholy": 4828,
      "Ġconference": 4829,
      ".--": 4830,
      "AD": 4831,
      "Cry": 4832,
      "Cond": 4833,
      "CLE": 4834,
      "Down": 4835,
      "Draw": 4836,
      "Each": 4837,
      "Fl": 4838,
      "FRO": 4839,
      "Fair": 4840,
      "Hail": 4841,
      "IL": 4842,
      "IT": 4843,
      "Im": 4844,
      "Kn": 4845,
      "King": 4846,
      "Lay": 4847,
      "Lie": 4848,
      "Lady": 4849,
      "Many": 4850,
      "OMEN": 4851,
      "PH": 4852,
      "Qu": 4853,
      "Ri": 4854,
      "Sm": 4855,
      "Son": 4856,
      "Somet": 4857,
      "Tush": 4858,
      "UGH": 4859,
      "Warwick": 4860,
      "Ye": 4861,
      "acc": 4862,
      "action": 4863,
      "bod": 4864,
      "bation": 4865,
      "cra": 4866,
      "cary": 4867,
      "cceed": 4868,
      "eb": 4869,
      "eve": 4870,
      "fa": 4871,
      "fold": 4872,
      "foot": 4873,
      "give": 4874,
      "iver": 4875,
      "iam": 4876,
      "kind": 4877,
      "long": 4878,
      "look": 4879,
      "mong": 4880,
      "ns": 4881,
      "nes": 4882,
      "new": 4883,
      "rs": 4884,
      "rat": 4885,
      "rough": 4886,
      "say": 4887,
      "sues": 4888,
      "than": 4889,
      "tic": 4890,
      "teen": 4891,
      "tles": 4892,
      "uries": 4893,
      "war": 4894,
      "weal": 4895,
      "xe": 4896,
      "Ġtim": 4897,
      "Ġtres": 4898,
      "Ġtall": 4899,
      "Ġtakes": 4900,
      "Ġtarry": 4901,
      "Ġtaunt": 4902,
      "here": 4903,
      "Ġaxe": 4904,
      "oubt": 4905,
      "Ġsalt": 4906,
      "Ġsnow": 4907,
      "Ġmir": 4908,
      "Ġmood": 4909,
      "Ġmess": 4910,
      "Ġmirth": 4911,
      "inct": 4912,
      "Ġwid": 4913,
      "Ġwest": 4914,
      "Ġwake": 4915,
      "Ġwink": 4916,
      "hand": 4917,
      "Ġbir": 4918,
      "Ġbuck": 4919,
      "ories": 4920,
      "ering": 4921,
      "erves": 4922,
      "iter": 4923,
      "itable": 4924,
      "onation": 4925,
      "Ġdiffe": 4926,
      "Ġcost": 4927,
      "Ġchall": 4928,
      "Ġciv": 4929,
      "Ġnap": 4930,
      "Ġlent": 4931,
      "Ġline": 4932,
      "Ġlap": 4933,
      "Ġyes": 4934,
      "Ġthir": 4935,
      "Ġthick": 4936,
      "Ġthread": 4937,
      "Ġhorn": 4938,
      "Ġoak": 4939,
      "Ġope": 4940,
      "Ġtoad": 4941,
      "Ġtoil": 4942,
      "Ġtooth": 4943,
      "Ġpee": 4944,
      "Ġpause": 4945,
      "ĠIta": 4946,
      "othes": 4947,
      "stable": 4948,
      "stery": 4949,
      "aning": 4950,
      "omach": 4951,
      "Ġgru": 4952,
      "Ġgaze": 4953,
      "Ġmystery": 4954,
      "Ġinfection": 4955,
      "Ġmemory": 4956,
      "imble": 4957,
      "illy": 4958,
      "illing": 4959,
      "herit": 4960,
      "Ġste": 4961,
      "Ġstick": 4962,
      "Ġstumble": 4963,
      "asp": 4964,
      "ases": 4965,
      "Ġrece": 4966,
      "Ġreap": 4967,
      "Ġredeem": 4968,
      "Ġlift": 4969,
      "Ġliken": 4970,
      "alse": 4971,
      "Ġdeb": 4972,
      "Ġdeck": 4973,
      "Ġdecl": 4974,
      "Ġsham": 4975,
      "ushy": 4976,
      "ushes": 4977,
      "Ġsell": 4978,
      "Ġseiz": 4979,
      "Ġseldom": 4980,
      "Ġsepul": 4981,
      "Through": 4982,
      "Ġsuper": 4983,
      "Ġsuitor": 4984,
      "Ġsucceed": 4985,
      "thing": 4986,
      "Ġlover": 4987,
      "Ġlovest": 4988,
      "Ġspl": 4989,
      "Ġspy": 4990,
      "Ġfact": 4991,
      "Ġfawn": 4992,
      "Ġnegle": 4993,
      "Ġknot": 4994,
      "Ġvar": 4995,
      "Ġvill": 4996,
      "Ġvol": 4997,
      "Ġshri": 4998,
      "ulf": 4999,
      "seless": 5000,
      "artius": 5001,
      "Ġmanif": 5002,
      "Ġmanage": 5003,
      "ĠMin": 5004,
      "ical": 5005,
      "icles": 5006,
      "ĠLau": 5007,
      "ĠLartius": 5008,
      "Ġhated": 5009,
      "LOUGH": 5010,
      "ersu": 5011,
      "Ġswain": 5012,
      "Ġbran": 5013,
      "pping": 5014,
      "ĠSalisbury": 5015,
      "Ġunwill": 5016,
      "ĠHis": 5017,
      "ĠHeaven": 5018,
      "ĠVen": 5019,
      "ĠVienna": 5020,
      "Whether": 5021,
      "Ġjot": 5022,
      "cies": 5023,
      "Ġshoulder": 5024,
      "ĠPerd": 5025,
      "ĠWIL": 5026,
      "Ġdeaths": 5027,
      "Ġheartily": 5028,
      "Ġwholesome": 5029,
      "Ġmarks": 5030,
      "Ġoffic": 5031,
      "Ġdisple": 5032,
      "Ġdisgu": 5033,
      "Ġabused": 5034,
      "Ġexerc": 5035,
      "Ġdescent": 5036,
      "Ġripe": 5037,
      "Ġride": 5038,
      "ased": 5039,
      "Ġleague": 5040,
      "Ġslip": 5041,
      "Ġwarri": 5042,
      "ĠTar": 5043,
      "ĠTell": 5044,
      "ĠTyrrel": 5045,
      "Ġbred": 5046,
      "Ġheavenly": 5047,
      "Ġclothes": 5048,
      "Ġsweeter": 5049,
      "Ġperhaps": 5050,
      "Ġscold": 5051,
      "Ġscandal": 5052,
      "Ġrain": 5053,
      "Ġrail": 5054,
      "Ġraised": 5055,
      "Ġappointed": 5056,
      "Ġwhit": 5057,
      "Ġremorse": 5058,
      "Ġremove": 5059,
      "Ġremoved": 5060,
      "ĠLords": 5061,
      "Ġbegan": 5062,
      "Ġrepose": 5063,
      "Ġharsh": 5064,
      "Ġkeeper": 5065,
      "Ġaccident": 5066,
      "Ġaccursed": 5067,
      "Ġyounger": 5068,
      "Ġyoungest": 5069,
      "Ġprick": 5070,
      "Ġdearly": 5071,
      "Ġsubtle": 5072,
      "RIAN": 5073,
      "Ġrights": 5074,
      "fortune": 5075,
      "Ġminds": 5076,
      "Ġcoff": 5077,
      "Ġdevotion": 5078,
      "Ġmischance": 5079,
      "Ġmeeting": 5080,
      "Ġafternoon": 5081,
      "Ġcareless": 5082,
      "Uncle": 5083,
      "Ġgriefs": 5084,
      "Anon": 5085,
      "Ġhuman": 5086,
      "Ġcounc": 5087,
      "Ġgrat": 5088,
      "Ġretire": 5089,
      "Ġserved": 5090,
      "Ġadventure": 5091,
      "Ġcurt": 5092,
      "Ġcountrymen": 5093,
      "Ġvirtues": 5094,
      "Ġwindows": 5095,
      "itten": 5096,
      "Ġcraves": 5097,
      "Ġcraft": 5098,
      "Ġbeauteous": 5099,
      "Ġstranger": 5100,
      "Ġyielded": 5101,
      "Ġsupply": 5102,
      "Ġcommonweal": 5103,
      "Ġmonstrous": 5104,
      "Ġmonument": 5105,
      "Didst": 5106,
      "soever": 5107,
      "Ġgrowing": 5108,
      "Ġheirs": 5109,
      "Ġvisage": 5110,
      "Ġpoints": 5111,
      "Ġstronger": 5112,
      "Ġtrusty": 5113,
      "Ġinstruction": 5114,
      "Ġinfant": 5115,
      "Ġforeign": 5116,
      "Ġincen": 5117,
      "Ġfeeling": 5118,
      "Ġburst": 5119,
      "Ġplainly": 5120,
      "Ġabsolute": 5121,
      "Ġfourteen": 5122,
      "Ġselfsame": 5123,
      "Ġfrowns": 5124,
      "Ġdirection": 5125,
      "Ġredress": 5126,
      "Ġsatisfy": 5127,
      "Ġservants": 5128,
      "ollow": 5129,
      "Ġblem": 5130,
      "Ġbridegroom": 5131,
      "Ġbabes": 5132,
      "Ġgallant": 5133,
      "Ġrebellion": 5134,
      "Ġwriting": 5135,
      "Ġfierce": 5136,
      "Ġshadows": 5137,
      "Ġpleasing": 5138,
      "Ġmodest": 5139,
      "Ġmodesty": 5140,
      "Ġobject": 5141,
      "Ġforswear": 5142,
      "Ġuncles": 5143,
      "Ġrefuse": 5144,
      "Among": 5145,
      "banished": 5146,
      "Ġbigger": 5147,
      "Ġfeather": 5148,
      "Ġdetermine": 5149,
      "Betw": 5150,
      "Better": 5151,
      "Ġchaste": 5152,
      "otted": 5153,
      "Ġfairer": 5154,
      "Ġshrewd": 5155,
      "Ġdismal": 5156,
      "Ġtrembling": 5157,
      "Ġacquaint": 5158,
      "Ġprophet": 5159,
      "Ġedge": 5160,
      "Ġeagle": 5161,
      "Ġshroud": 5162,
      "Ġsubstit": 5163,
      "othecary": 5164,
      "Ġsteeds": 5165,
      "Ġiron": 5166,
      "Ġtorture": 5167,
      "Ġrenowned": 5168,
      "Ġdearest": 5169,
      "Return": 5170,
      "Remember": 5171,
      "Ġwondrous": 5172,
      "Ġballad": 5173,
      "Ġpenitent": 5174,
      "Ġpolicy": 5175,
      "Ġrepeal": 5176,
      "Ġadversaries": 5177,
      "Ġpurchase": 5178,
      "Commend": 5179,
      "Ġprivilege": 5180,
      "Ġrevolt": 5181,
      "Ġsullen": 5182,
      "Ġconceal": 5183,
      "ĠConspirator": 5184,
      "Coriolanus": 5185,
      "Ġdowry": 5186,
      "Ġpierce": 5187,
      "Ġstrokes": 5188,
      "Ġflatterer": 5189,
      "ĠMariana": 5190,
      "ouchsafe": 5191,
      "ADRIAN": 5192,
      "CLEOMEN": 5193,
      "FROTH": 5194,
      "Ġtrespass": 5195,
      "Ġcivil": 5196,
      "Ġthirty": 5197,
      "ĠItaly": 5198,
      "Ġsepulch": 5199,
      "LOUGHBY": 5200,
      "ĠPerdita": 5201,
      "ĠWILLOUGHBY": 5202,
      "Ġexercise": 5203,
      "CLEOMENES": 5204,
      "AM": 5205,
      "Aw": 5206,
      "BAR": 5207,
      "Courage": 5208,
      "Dare": 5209,
      "Find": 5210,
      "Get": 5211,
      "Men": 5212,
      "Mist": 5213,
      "Making": 5214,
      "Methought": 5215,
      "NARD": 5216,
      "Oh": 5217,
      "Pur": 5218,
      "Petruchio": 5219,
      "Que": 5220,
      "Rather": 5221,
      "RUT": 5222,
      "Se": 5223,
      "Sound": 5224,
      "Tranio": 5225,
      "UR": 5226,
      "Villain": 5227,
      "Wit": 5228,
      "ax": 5229,
      "br": 5230,
      "bble": 5231,
      "boy": 5232,
      "car": 5233,
      "cest": 5234,
      "cue": 5235,
      "cence": 5236,
      "done": 5237,
      "ders": 5238,
      "duke": 5239,
      "ext": 5240,
      "from": 5241,
      "gy": 5242,
      "got": 5243,
      "ghan": 5244,
      "great": 5245,
      "gentle": 5246,
      "iar": 5247,
      "ips": 5248,
      "mas": 5249,
      "made": 5250,
      "nken": 5251,
      "nicious": 5252,
      "oon": 5253,
      "oes": 5254,
      "off": 5255,
      "phy": 5256,
      "pret": 5257,
      "pardon": 5258,
      "rity": 5259,
      "ratch": 5260,
      "sire": 5261,
      "scal": 5262,
      "tend": 5263,
      "ug": 5264,
      "vive": 5265,
      "vied": 5266,
      "ĠAs": 5267,
      "Ġtou": 5268,
      "Ġtro": 5269,
      "Ġtig": 5270,
      "Ġtail": 5271,
      "Ġale": 5272,
      "Ġages": 5273,
      "Ġsn": 5274,
      "Ġmain": 5275,
      "Ġmil": 5276,
      "Ġmethought": 5277,
      "inate": 5278,
      "Ġward": 5279,
      "Ġwakes": 5280,
      "Ġbon": 5281,
      "Ġbore": 5282,
      "Ġbag": 5283,
      "Ġbrown": 5284,
      "Ġborrow": 5285,
      "Ġbott": 5286,
      "ision": 5287,
      "orough": 5288,
      "Ġfish": 5289,
      "Ġfret": 5290,
      "Ġfix": 5291,
      "Ġfreed": 5292,
      "ital": 5293,
      "itiff": 5294,
      "onest": 5295,
      "Ġdate": 5296,
      "Ġdower": 5297,
      "Ġcrow": 5298,
      "esu": 5299,
      "enge": 5300,
      "Ġnet": 5301,
      "Ġnest": 5302,
      "Ġnice": 5303,
      "Ġnumb": 5304,
      "Ġnupt": 5305,
      "Ġlur": 5306,
      "Ġlance": 5307,
      "Ġlower": 5308,
      "Ġluck": 5309,
      "Ġyon": 5310,
      "Ġthin": 5311,
      "Ġthie": 5312,
      "Ġthirst": 5313,
      "Ġthumb": 5314,
      "Ġhom": 5315,
      "Ġhind": 5316,
      "Ġhig": 5317,
      "Ġhire": 5318,
      "Ġhoney": 5319,
      "Ġtoy": 5320,
      "Ġtomorrow": 5321,
      "Ġped": 5322,
      "Ġpear": 5323,
      "Ġpath": 5324,
      "Ġpage": 5325,
      "hath": 5326,
      "ĠIt": 5327,
      "Ġheat": 5328,
      "Ġheels": 5329,
      "owl": 5330,
      "ingers": 5331,
      "Ġgid": 5332,
      "atri": 5333,
      "atest": 5334,
      "Ġbere": 5335,
      "Ġbefall": 5336,
      "sey": 5337,
      "Ġink": 5338,
      "cels": 5339,
      "Ġhare": 5340,
      "Ġhaught": 5341,
      "Ġhabit": 5342,
      "ayed": 5343,
      "Ġnoted": 5344,
      "chief": 5345,
      "keley": 5346,
      "Ġweal": 5347,
      "Ġwealth": 5348,
      "oops": 5349,
      "hern": 5350,
      "Ġwithdraw": 5351,
      "rif": 5352,
      "rich": 5353,
      "rible": 5354,
      "Ġstale": 5355,
      "Ġstern": 5356,
      "Ġstomach": 5357,
      "order": 5358,
      "INE": 5359,
      "rage": 5360,
      "Ġlivery": 5361,
      "Ġliking": 5362,
      "urg": 5363,
      "urrey": 5364,
      "Ġdeaf": 5365,
      "Ġshare": 5366,
      "Ġshapes": 5367,
      "Ġdove": 5368,
      "Ġdogs": 5369,
      "Ġdozen": 5370,
      "Ġwills": 5371,
      "ushing": 5372,
      "Ġsuits": 5373,
      "Ġhers": 5374,
      "Ġanointed": 5375,
      "ardel": 5376,
      "Ġspit": 5377,
      "Ġspect": 5378,
      "Ġshallow": 5379,
      "ĠCounty": 5380,
      "Ġneat": 5381,
      "Ġvent": 5382,
      "Ġshook": 5383,
      "Ġshines": 5384,
      "Ġupright": 5385,
      "Ġgoods": 5386,
      "Ġprime": 5387,
      "Ġamiss": 5388,
      "icate": 5389,
      "icio": 5390,
      "Ġconceive": 5391,
      "iege": 5392,
      "Ġblast": 5393,
      "ĠGree": 5394,
      "emper": 5395,
      "Ġgodd": 5396,
      "aughan": 5397,
      "Ġsirs": 5398,
      "ola": 5399,
      "olved": 5400,
      "ĠLicio": 5401,
      "Ġthereby": 5402,
      "ept": 5403,
      "eping": 5404,
      "Ġswore": 5405,
      "Ġsweat": 5406,
      "Ġorn": 5407,
      "ĠSc": 5408,
      "ĠSp": 5409,
      "ĠSee": 5410,
      "ĠShore": 5411,
      "ĠOff": 5412,
      "ĠBr": 5413,
      "ĠBy": 5414,
      "Ġarrest": 5415,
      "Ġlets": 5416,
      "Ġunst": 5417,
      "Ġunse": 5418,
      "Ġunfe": 5419,
      "Ġworm": 5420,
      "ĠVal": 5421,
      "aker": 5422,
      "Ġhop": 5423,
      "Ġlikely": 5424,
      "Ġproclam": 5425,
      "ĠPlease": 5426,
      "ĠPETER": 5427,
      "Ġsav": 5428,
      "Ġmadness": 5429,
      "umbling": 5430,
      "Ġplaces": 5431,
      "iced": 5432,
      "ĠWilt": 5433,
      "Ġeng": 5434,
      "unate": 5435,
      "Ġrans": 5436,
      "Ġtrunk": 5437,
      "Ġsomewhat": 5438,
      "harged": 5439,
      "orney": 5440,
      "Ġoffices": 5441,
      "Ġdisgra": 5442,
      "Ġalms": 5443,
      "Ġabuse": 5444,
      "Ġexam": 5445,
      "Ġtelling": 5446,
      "Ġlooked": 5447,
      "Ġthinking": 5448,
      "Ġwhereon": 5449,
      "agues": 5450,
      "Whereto": 5451,
      "Ġflow": 5452,
      "Ġflint": 5453,
      "Ġflourish": 5454,
      "Ġfearing": 5455,
      "bert": 5456,
      "Ġbreed": 5457,
      "Ġgreatness": 5458,
      "Ġparted": 5459,
      "Ġpernicious": 5460,
      "Ġtroop": 5461,
      "Ġtroops": 5462,
      "lied": 5463,
      "Ġscatter": 5464,
      "ainty": 5465,
      "ables": 5466,
      "ĠFare": 5467,
      "Ġappea": 5468,
      "Ġgraced": 5469,
      "Ġbegu": 5470,
      "Ġbeget": 5471,
      "rank": 5472,
      "Ġchildish": 5473,
      "Ġreply": 5474,
      "Ġconsort": 5475,
      "loves": 5476,
      "ercing": 5477,
      "cheth": 5478,
      "Ġtrif": 5479,
      "ontes": 5480,
      "Ġprice": 5481,
      "Ġsubd": 5482,
      "Ġbacks": 5483,
      "twill": 5484,
      "Ġforthwith": 5485,
      "Ġbank": 5486,
      "Ġcheap": 5487,
      "Ġcharm": 5488,
      "Ġlaws": 5489,
      "Ġconfirm": 5490,
      "Ġcoll": 5491,
      "Ġlightning": 5492,
      "Does": 5493,
      "Ġroyalty": 5494,
      "ĠAnne": 5495,
      "Ġbesides": 5496,
      "Ġhappily": 5497,
      "Ġsorrows": 5498,
      "Ġcareful": 5499,
      "Ġlesser": 5500,
      "Ġstrive": 5501,
      "Ġsleeping": 5502,
      "Ġdrag": 5503,
      "Ġserp": 5504,
      "Ġboast": 5505,
      "pense": 5506,
      "Ġwanting": 5507,
      "Ġbreathing": 5508,
      "Ġdiscourse": 5509,
      "Ġsenseless": 5510,
      "Ġbeaut": 5511,
      "Ġhangs": 5512,
      "Ġdepend": 5513,
      "hamed": 5514,
      "Ġgrew": 5515,
      "Ġspoil": 5516,
      "Ġdrunken": 5517,
      "Ġaffords": 5518,
      "Ġmetal": 5519,
      "Ġsooner": 5520,
      "IDAM": 5521,
      "Ġsights": 5522,
      "Ġmonster": 5523,
      "Ġmonarch": 5524,
      "acles": 5525,
      "Ġsadness": 5526,
      "Ġsuffic": 5527,
      "Ġcarried": 5528,
      "Ġexecute": 5529,
      "Ġexecuted": 5530,
      "Ġminute": 5531,
      "Ġvel": 5532,
      "Ġcoronation": 5533,
      "Ġpraises": 5534,
      "Ġwaves": 5535,
      "Ġburnt": 5536,
      "Ġliberal": 5537,
      "Ġburns": 5538,
      "Ġburning": 5539,
      "Ġproport": 5540,
      "Ġblessing": 5541,
      "Ġbleeding": 5542,
      "Ġestim": 5543,
      "Ġbitterly": 5544,
      "mbles": 5545,
      "speak": 5546,
      "Ġlimit": 5547,
      "Ġlimbs": 5548,
      "Ġsacrif": 5549,
      "Ġsuccession": 5550,
      "Ġactions": 5551,
      "Ġcaps": 5552,
      "Ġviolence": 5553,
      "Ġtriumphant": 5554,
      "Ġmidnight": 5555,
      "Ġrebels": 5556,
      "Ġpossession": 5557,
      "Play": 5558,
      "Ġtorch": 5559,
      "Ġcaitiff": 5560,
      "Ġpitiful": 5561,
      "Ġinjury": 5562,
      "Ġurge": 5563,
      "Ġexecutioner": 5564,
      "March": 5565,
      "Marcius": 5566,
      "Ġmeddle": 5567,
      "Ġoccup": 5568,
      "Ġnobility": 5569,
      "Ġchurchyard": 5570,
      "Ġignorance": 5571,
      "Ġsaints": 5572,
      "headed": 5573,
      "ĠCaesar": 5574,
      "Ġrank": 5575,
      "Ġguests": 5576,
      "ĠWilliam": 5577,
      "Ġhungry": 5578,
      "Ġunfold": 5579,
      "Ġmonths": 5580,
      "Ġextremity": 5581,
      "Ġinclined": 5582,
      "Ġcovert": 5583,
      "Ġjoints": 5584,
      "Ġprevented": 5585,
      "Ġtyrann": 5586,
      "Ġlengthen": 5587,
      "Ġwager": 5588,
      "Ġnecessity": 5589,
      "Ġsubstance": 5590,
      "Ġescape": 5591,
      "Ġsenses": 5592,
      "Ġstatue": 5593,
      "Ġconjure": 5594,
      "Ġbands": 5595,
      "Ġweapon": 5596,
      "Ġsteps": 5597,
      "Ġangel": 5598,
      "Ġtransport": 5599,
      "Ġthreatening": 5600,
      "Ġwolf": 5601,
      "Ġcensure": 5602,
      "ribunes": 5603,
      "ARCHIDAM": 5604,
      "ĠDido": 5605,
      "ĠElbow": 5606,
      "Ġapprehend": 5607,
      "Ġimmortal": 5608,
      "Ġtapster": 5609,
      "Ġmoral": 5610,
      "ĠBerkeley": 5611,
      "Ġjewel": 5612,
      "Ġruthless": 5613,
      "Ġdispersed": 5614,
      "Ġclamour": 5615,
      "Ġrapier": 5616,
      "Ġcompanion": 5617,
      "Strike": 5618,
      "Ġopposite": 5619,
      "Ġzeal": 5620,
      "Ġcherish": 5621,
      "Ġstretch": 5622,
      "ambio": 5623,
      "Ġspleen": 5624,
      "Ġcharacter": 5625,
      "Ġprettiest": 5626,
      "Ġrejoice": 5627,
      "Ġbirds": 5628,
      "Ġchallenge": 5629,
      "Ġpeevish": 5630,
      "Ġlikeness": 5631,
      "ĠLaurence": 5632,
      "Ġofficers": 5633,
      "Ġwarriors": 5634,
      "Ġcommonwealth": 5635,
      "Ġsepulchre": 5636,
      "BARNARD": 5637,
      "Queen": 5638,
      "RUTLAND": 5639,
      "scalus": 5640,
      "Ġbottom": 5641,
      "Ġnuptial": 5642,
      "Ġgiddy": 5643,
      "ĠOfficer": 5644,
      "ĠWiltshire": 5645,
      "ARCHIDAMUS": 5646,
      "BARNARDINE": 5647,
      "ATER": 5648,
      "Add": 5649,
      "Bre": 5650,
      "Bra": 5651,
      "BAN": 5652,
      "CRO": 5653,
      "Content": 5654,
      "Ever": 5655,
      "Eng": 5656,
      "Else": 5657,
      "EPH": 5658,
      "Full": 5659,
      "False": 5660,
      "Follow": 5661,
      "GO": 5662,
      "Ga": 5663,
      "Gard": 5664,
      "Gentleman": 5665,
      "Hic": 5666,
      "Henry": 5667,
      "Hortensio": 5668,
      "Lu": 5669,
      "Live": 5670,
      "Mis": 5671,
      "MOR": 5672,
      "Much": 5673,
      "Name": 5674,
      "Old": 5675,
      "Patience": 5676,
      "Persu": 5677,
      "Saw": 5678,
      "Six": 5679,
      "SIR": 5680,
      "TON": 5681,
      "Toward": 5682,
      "TMOR": 5683,
      "Virt": 5684,
      "Wr": 5685,
      "WES": 5686,
      "Woe": 5687,
      "Women": 5688,
      "WATER": 5689,
      "Yield": 5690,
      "ZWATER": 5691,
      "ald": 5692,
      "aven": 5693,
      "back": 5694,
      "cor": 5695,
      "cus": 5696,
      "call": 5697,
      "cap": 5698,
      "cont": 5699,
      "cons": 5700,
      "ded": 5701,
      "dal": 5702,
      "fri": 5703,
      "gged": 5704,
      "horse": 5705,
      "iban": 5706,
      "light": 5707,
      "may": 5708,
      "nant": 5709,
      "pray": 5710,
      "ront": 5711,
      "sen": 5712,
      "vided": 5713,
      "wd": 5714,
      "wing": 5715,
      "water": 5716,
      "zed": 5717,
      "Ġice": 5718,
      "Ġought": 5719,
      "ĠThy": 5720,
      "Ġeter": 5721,
      "ĠQueen": 5722,
      "Ġtard": 5723,
      "Ġtack": 5724,
      "Ġtree": 5725,
      "Ġtied": 5726,
      "Ġtired": 5727,
      "Ġtakest": 5728,
      "Ġah": 5729,
      "Ġaud": 5730,
      "Ġaged": 5731,
      "oured": 5732,
      "Ġsed": 5733,
      "Ġsess": 5734,
      "Ġsau": 5735,
      "Ġsings": 5736,
      "Ġsought": 5737,
      "Ġsides": 5738,
      "Ġsurp": 5739,
      "Ġsilly": 5740,
      "Ġmat": 5741,
      "Ġmour": 5742,
      "Ġmould": 5743,
      "iners": 5744,
      "Ġwet": 5745,
      "Ġwave": 5746,
      "Ġwaked": 5747,
      "reet": 5748,
      "reant": 5749,
      "habit": 5750,
      "Ġbay": 5751,
      "Ġbill": 5752,
      "Ġbent": 5753,
      "Ġbru": 5754,
      "Ġbol": 5755,
      "Ġbalm": 5756,
      "ishes": 5757,
      "isement": 5758,
      "orth": 5759,
      "oriz": 5760,
      "Ġfin": 5761,
      "Ġfant": 5762,
      "Ġfray": 5763,
      "Ġfever": 5764,
      "Ġfelt": 5765,
      "Ġfardel": 5766,
      "erily": 5767,
      "itch": 5768,
      "oned": 5769,
      "onus": 5770,
      "onstant": 5771,
      "Ġcat": 5772,
      "Ġcent": 5773,
      "Ġcook": 5774,
      "envol": 5775,
      "Ġnar": 5776,
      "Ġlour": 5777,
      "Ġlun": 5778,
      "arm": 5779,
      "Ġomit": 5780,
      "Ġtops": 5781,
      "Ġpor": 5782,
      "Ġpill": 5783,
      "Ġpent": 5784,
      "Ġphi": 5785,
      "Ġpick": 5786,
      "Ġpace": 5787,
      "Ġpaint": 5788,
      "Ġpaid": 5789,
      "Ġpush": 5790,
      "Ġpalm": 5791,
      "Ġpomp": 5792,
      "ĠIn": 5793,
      "Ġhera": 5794,
      "Ġheight": 5795,
      "omes": 5796,
      "Ġgn": 5797,
      "Ġgap": 5798,
      "Ġgains": 5799,
      "Ġgoose": 5800,
      "athe": 5801,
      "athed": 5802,
      "Ġbeams": 5803,
      "sec": 5804,
      "seem": 5805,
      "Ġinv": 5806,
      "Ġhail": 5807,
      "iring": 5808,
      "ednes": 5809,
      "uts": 5810,
      "utch": 5811,
      "Ġmew": 5812,
      "Ġmemb": 5813,
      "Ġissu": 5814,
      "Ġforty": 5815,
      "Ġweek": 5816,
      "ently": 5817,
      "riel": 5818,
      "Ġstead": 5819,
      "Ġhist": 5820,
      "Ġrend": 5821,
      "Ġrear": 5822,
      "Ġreach": 5823,
      "Ġrevel": 5824,
      "raid": 5825,
      "Ġlions": 5826,
      "Ġlikes": 5827,
      "Ġlivest": 5828,
      "urgh": 5829,
      "urtis": 5830,
      "alter": 5831,
      "Ġsoil": 5832,
      "Ġsoci": 5833,
      "Ġaspect": 5834,
      "Ġashamed": 5835,
      "Ġdem": 5836,
      "Ġdepose": 5837,
      "rog": 5838,
      "ARLIS": 5839,
      "hire": 5840,
      "verty": 5841,
      "Ġbutt": 5842,
      "Ġsevere": 5843,
      "Ġseated": 5844,
      "Thine": 5845,
      "Things": 5846,
      "Ġalleg": 5847,
      "Ġherd": 5848,
      "three": 5849,
      "Ġanch": 5850,
      "tering": 5851,
      "Ġload": 5852,
      "Ġlock": 5853,
      "Ġlovers": 5854,
      "ellows": 5855,
      "Ġspread": 5856,
      "Ġourself": 5857,
      "Ġfavours": 5858,
      "ilful": 5859,
      "iliar": 5860,
      "ĠCurtis": 5861,
      "ĠCARLIS": 5862,
      "ĠRatcliff": 5863,
      "ĠRaven": 5864,
      "Ġvast": 5865,
      "ORGE": 5866,
      "Ġshru": 5867,
      "Ġshrift": 5868,
      "arted": 5869,
      "ĠMistress": 5870,
      "ĠEm": 5871,
      "ĠEly": 5872,
      "ĠELY": 5873,
      "ĠEscalus": 5874,
      "Ġamain": 5875,
      "Ġamends": 5876,
      "Ġambit": 5877,
      "Ġamorous": 5878,
      "Ġconsequ": 5879,
      "iece": 5880,
      "ĠGreen": 5881,
      "Ġshel": 5882,
      "Ġgoss": 5883,
      "arers": 5884,
      "olks": 5885,
      "ĠLook": 5886,
      "Ġknowing": 5887,
      "resh": 5888,
      "Ġswears": 5889,
      "Ġbrat": 5890,
      "ĠShall": 5891,
      "ĠSurrey": 5892,
      "ĠSCRO": 5893,
      "ĠOur": 5894,
      "ĠBushy": 5895,
      "ĠBurg": 5896,
      "Ġarray": 5897,
      "Ġune": 5898,
      "Ġunm": 5899,
      "Ġunre": 5900,
      "igent": 5901,
      "igonus": 5902,
      "ĠHim": 5903,
      "ĠHark": 5904,
      "ĠHuntsman": 5905,
      "ĠVaughan": 5906,
      "elsh": 5907,
      "eliver": 5908,
      "LIBAN": 5909,
      "Ġgrain": 5910,
      "Ġhoar": 5911,
      "Ġlikewise": 5912,
      "Ġproved": 5913,
      "Ġprocess": 5914,
      "Ġprodig": 5915,
      "umed": 5916,
      "ĠWas": 5917,
      "ĠWould": 5918,
      "ĠWelsh": 5919,
      "isting": 5920,
      "Ġenc": 5921,
      "uns": 5922,
      "Ġrate": 5923,
      "Ġrouse": 5924,
      "Ġpoverty": 5925,
      "Ġspeaking": 5926,
      "Ġoutrage": 5927,
      "ELAND": 5928,
      "ickle": 5929,
      "CALIBAN": 5930,
      "Withdraw": 5931,
      "igned": 5932,
      "Ġmars": 5933,
      "Ġmarvel": 5934,
      "Ġmarvell": 5935,
      "Ġdisin": 5936,
      "Ġdisease": 5937,
      "Ġabund": 5938,
      "Ġrobb": 5939,
      "Ġexcept": 5940,
      "agot": 5941,
      "aged": 5942,
      "Ġdesc": 5943,
      "Ġriches": 5944,
      "Whereof": 5945,
      "Ġslight": 5946,
      "Ġslipp": 5947,
      "Ġflat": 5948,
      "Ġbetide": 5949,
      "Ġbread": 5950,
      "Behold": 5951,
      "Ġcouple": 5952,
      "Ġparties": 5953,
      "Ġpartner": 5954,
      "idered": 5955,
      "Ġclock": 5956,
      "Ġprefer": 5957,
      "Ġsweetly": 5958,
      "ĠDian": 5959,
      "ulls": 5960,
      "Ġwritten": 5961,
      "Ġscratch": 5962,
      "Ġpresume": 5963,
      "Ġpreserve": 5964,
      "Ġnights": 5965,
      "Ġworldly": 5966,
      "perience": 5967,
      "Ġrack": 5968,
      "Ġraven": 5969,
      "them": 5970,
      "ably": 5971,
      "ĠFIT": 5972,
      "Ġdownright": 5973,
      "Ġcontro": 5974,
      "BAGO": 5975,
      "ranch": 5976,
      "Ġimper": 5977,
      "Ġreputation": 5978,
      "Ġafraid": 5979,
      "Ġmightst": 5980,
      "Ġstays": 5981,
      "Ġrue": 5982,
      "Ġleg": 5983,
      "Ġlect": 5984,
      "Ġlewd": 5985,
      "loso": 5986,
      "Ġrestore": 5987,
      "Ġentrance": 5988,
      "Ġtricks": 5989,
      "Ġmoves": 5990,
      "Ġbestow": 5991,
      "Ġaccom": 5992,
      "Ġended": 5993,
      "Ġpurge": 5994,
      "Ġpurple": 5995,
      "Ġputting": 5996,
      "Prove": 5997,
      "Proceed": 5998,
      "Proclaim": 5999,
      "Ġsmil": 6000,
      "Ġsmother": 6001,
      "Ġtrain": 6002,
      "Ġtravell": 6003,
      "Ġbidding": 6004,
      "Ġdrew": 6005,
      "Ġearthly": 6006,
      "Ġcouldst": 6007,
      "Ġtren": 6008,
      "Ġhopeful": 6009,
      "GEORGE": 6010,
      "Ġbrains": 6011,
      "Ġcheque": 6012,
      "Ġbridal": 6013,
      "Ġconfound": 6014,
      "being": 6015,
      "Ġcop": 6016,
      "Ġcoat": 6017,
      "Ġmisfortune": 6018,
      "Ġlanded": 6019,
      "blood": 6020,
      "Ġfalcon": 6021,
      "Ġfalls": 6022,
      "Ġbusy": 6023,
      "Another": 6024,
      "Ġstrict": 6025,
      "Ġcounsell": 6026,
      "Ġcourtier": 6027,
      "Ġcourteous": 6028,
      "Ġbuzz": 6029,
      "Ġattain": 6030,
      "Ġattorney": 6031,
      "erest": 6032,
      "Ġsounds": 6033,
      "Ġsounded": 6034,
      "Ġretired": 6035,
      "Ġadvised": 6036,
      "Ġrevenges": 6037,
      "Ġstraw": 6038,
      "Although": 6039,
      "Ġprompt": 6040,
      "Ġcram": 6041,
      "Ġcontents": 6042,
      "Ġvillains": 6043,
      "Ġinteg": 6044,
      "Ġkisses": 6045,
      "aptain": 6046,
      "Ġyields": 6047,
      "upid": 6048,
      "Ġwinters": 6049,
      "Ġlambs": 6050,
      "Ġbeats": 6051,
      "Ġbeaten": 6052,
      "acy": 6053,
      "undy": 6054,
      "unday": 6055,
      "ventry": 6056,
      "Ġchosen": 6057,
      "Hadst": 6058,
      "Ġentreaties": 6059,
      "Ġdevilish": 6060,
      "Ġboldly": 6061,
      "Ġwooing": 6062,
      "Ġinfer": 6063,
      "Becomes": 6064,
      "guard": 6065,
      "Ġreadiness": 6066,
      "Ġprofane": 6067,
      "Ġdivor": 6068,
      "Ġyouthful": 6069,
      "Comes": 6070,
      "Comfort": 6071,
      "Ġterm": 6072,
      "Ġsuitors": 6073,
      "Ġstops": 6074,
      "Ġcloudy": 6075,
      "Ġmusicians": 6076,
      "Ġdroop": 6077,
      "Ġwax": 6078,
      "Ġgrieves": 6079,
      "Ġgrieved": 6080,
      "chers": 6081,
      "Ġskill": 6082,
      "Ġsignal": 6083,
      "Ġsignify": 6084,
      "Ġcheerly": 6085,
      "Ġprophes": 6086,
      "Ġextreme": 6087,
      "Ġtroubl": 6088,
      "Ġsatisfaction": 6089,
      "Ġdarkness": 6090,
      "Ġexped": 6091,
      "Ġflattering": 6092,
      "Ġembra": 6093,
      "Ġesteem": 6094,
      "Ġbowels": 6095,
      "Ġfrail": 6096,
      "Ġhurl": 6097,
      "Ġtowns": 6098,
      "Ġsuddenly": 6099,
      "spurgh": 6100,
      "Ġcowardly": 6101,
      "Ġlamentable": 6102,
      "Ġowes": 6103,
      "Ġeaten": 6104,
      "Ġkinsmen": 6105,
      "Ġmiddle": 6106,
      "Ġdestruction": 6107,
      "Ġdeparture": 6108,
      "Plantagenet": 6109,
      "Whiles": 6110,
      "Ġfondly": 6111,
      "Ġusurping": 6112,
      "Above": 6113,
      "ossess": 6114,
      "Ġmildness": 6115,
      "Ġinsol": 6116,
      "Ġgladly": 6117,
      "mediate": 6118,
      "Ġapace": 6119,
      "Ġships": 6120,
      "Ġshop": 6121,
      "Ġshoes": 6122,
      "Ġobsequ": 6123,
      "Ġtreasons": 6124,
      "Ġcondemned": 6125,
      "Ġtroubled": 6126,
      "Ġlists": 6127,
      "Ġstorms": 6128,
      "Ġtemples": 6129,
      "Ġmutinous": 6130,
      "Ġpetty": 6131,
      "Ġconquest": 6132,
      "Ġgrandam": 6133,
      "Ġgrandsire": 6134,
      "Ġeldest": 6135,
      "ĠAntigonus": 6136,
      "Disp": 6137,
      "EXTON": 6138,
      "Ġbastards": 6139,
      "Ġhelps": 6140,
      "Ġamongst": 6141,
      "Ġprovide": 6142,
      "Ġgreeting": 6143,
      "Ġministers": 6144,
      "Neither": 6145,
      "where": 6146,
      "Ġconclud": 6147,
      "Ġconclude": 6148,
      "Ġdismiss": 6149,
      "Officer": 6150,
      "Ġimagine": 6151,
      "Ġacquainted": 6152,
      "Ġgifts": 6153,
      "Ġghostly": 6154,
      "Ġbehavior": 6155,
      "Ġeleven": 6156,
      "Ġrobes": 6157,
      "Ġdesigns": 6158,
      "Ġtempted": 6159,
      "Ġheavier": 6160,
      "Perhaps": 6161,
      "Ġerrand": 6162,
      "Ġwandering": 6163,
      "Ġdetest": 6164,
      "Ġweapons": 6165,
      "Ġvanity": 6166,
      "Ġaccusation": 6167,
      "Shalt": 6168,
      "Ġfrost": 6169,
      "Ġpersuade": 6170,
      "Ġdiscontented": 6171,
      "Appear": 6172,
      "Ġtestim": 6173,
      "Ġhazard": 6174,
      "ĠCaliban": 6175,
      "ĠBlunt": 6176,
      "Ġkeys": 6177,
      "Ġinstantly": 6178,
      "iveness": 6179,
      "Ġfigure": 6180,
      "Ġfurnish": 6181,
      "Ġparents": 6182,
      "Ġrecompense": 6183,
      "Ġnobleness": 6184,
      "ĠCoventry": 6185,
      "ĠSTEPH": 6186,
      "Ġprovoked": 6187,
      "Ġintelligence": 6188,
      "Ġfiend": 6189,
      "Ġceremon": 6190,
      "advised": 6191,
      "Ġreckon": 6192,
      "ĠLeontes": 6193,
      "Ġreconcile": 6194,
      "Ġunkindness": 6195,
      "Ġpilgrimage": 6196,
      "Ġcomplexion": 6197,
      "Ġseized": 6198,
      "Ġneglect": 6199,
      "Ġvarlet": 6200,
      "ĠMinola": 6201,
      "ĠVenice": 6202,
      "Ġblemish": 6203,
      "Ġfreedom": 6204,
      "Ġthieves": 6205,
      "Ġgoddess": 6206,
      "Ġproclamation": 6207,
      "Ġsavage": 6208,
      "Ġransom": 6209,
      "Ġexample": 6210,
      "Ġvelvet": 6211,
      "Ġproportion": 6212,
      "Ġtyrannous": 6213,
      "Gaoler": 6214,
      "Gardener": 6215,
      "Lucentio": 6216,
      "Towards": 6217,
      "TMORELAND": 6218,
      "WESTMORELAND": 6219,
      "envolio": 6220,
      "Ġnarrow": 6221,
      "Ġphiloso": 6222,
      "Ġherald": 6223,
      "ednesday": 6224,
      "Ġmembers": 6225,
      "Ġallegiance": 6226,
      "ĠCARLISLE": 6227,
      "ĠRavenspurgh": 6228,
      "Ġambitious": 6229,
      "ĠSCROOP": 6230,
      "ĠBurgundy": 6231,
      "ĠFITZWATER": 6232,
      "BAGOT": 6233,
      "Ġintegrity": 6234,
      "ĠSTEPHEN": 6235,
      "Ġphilosophy": 6236,
      "Ac": 6237,
      "Af": 6238,
      "Bound": 6239,
      "Ca": 6240,
      "Cont": 6241,
      "Camillo": 6242,
      "Catesby": 6243,
      "Dep": 6244,
      "Div": 6245,
      "Fore": 6246,
      "Five": 6247,
      "Fall": 6248,
      "Foul": 6249,
      "Fetch": 6250,
      "Gra": 6251,
      "Gives": 6252,
      "Grace": 6253,
      "Hie": 6254,
      "Harry": 6255,
      "Hang": 6256,
      "Justice": 6257,
      "Kind": 6258,
      "Lies": 6259,
      "Lead": 6260,
      "Mur": 6261,
      "Part": 6262,
      "Peter": 6263,
      "Rel": 6264,
      "Sit": 6265,
      "Send": 6266,
      "Ten": 6267,
      "Tra": 6268,
      "Talk": 6269,
      "Touch": 6270,
      "Teach": 6271,
      "Truly": 6272,
      "Vouchsafe": 6273,
      "Verily": 6274,
      "Wert": 6275,
      "Zounds": 6276,
      "av": 6277,
      "ape": 6278,
      "aving": 6279,
      "bes": 6280,
      "bour": 6281,
      "bell": 6282,
      "board": 6283,
      "cat": 6284,
      "cock": 6285,
      "down": 6286,
      "ech": 6287,
      "eves": 6288,
      "gic": 6289,
      "gues": 6290,
      "hors": 6291,
      "ipt": 6292,
      "join": 6293,
      "kest": 6294,
      "know": 6295,
      "lor": 6296,
      "len": 6297,
      "low": 6298,
      "lain": 6299,
      "last": 6300,
      "lace": 6301,
      "lock": 6302,
      "liness": 6303,
      "longs": 6304,
      "met": 6305,
      "miss": 6306,
      "mistress": 6307,
      "nib": 6308,
      "ob": 6309,
      "oble": 6310,
      "open": 6311,
      "post": 6312,
      "pite": 6313,
      "pular": 6314,
      "pothecary": 6315,
      "ris": 6316,
      "rish": 6317,
      "roof": 6318,
      "sent": 6319,
      "tin": 6320,
      "ted": 6321,
      "tell": 6322,
      "tong": 6323,
      "tied": 6324,
      "trees": 6325,
      "uge": 6326,
      "uild": 6327,
      "ually": 6328,
      "vir": 6329,
      "wh": 6330,
      "wer": 6331,
      "was": 6332,
      "work": 6333,
      "women": 6334,
      "ycor": 6335,
      "ĠFirst": 6336,
      "Ġtrow": 6337,
      "Ġtie": 6338,
      "Ġtorn": 6339,
      "Ġtaking": 6340,
      "heard": 6341,
      "Ġafe": 6342,
      "Ġsow": 6343,
      "Ġsand": 6344,
      "Ġsong": 6345,
      "Ġsixt": 6346,
      "Ġmom": 6347,
      "Ġmas": 6348,
      "Ġmouse": 6349,
      "Ġmates": 6350,
      "Ġmurde": 6351,
      "Ġmask": 6352,
      "inu": 6353,
      "inal": 6354,
      "inies": 6355,
      "inces": 6356,
      "Ġwore": 6357,
      "Ġwipe": 6358,
      "had": 6359,
      "hage": 6360,
      "Ġbot": 6361,
      "Ġbul": 6362,
      "Ġbows": 6363,
      "Ġbail": 6364,
      "Ġbounty": 6365,
      "Ġfre": 6366,
      "Ġfan": 6367,
      "Ġfif": 6368,
      "Ġfil": 6369,
      "Ġfrant": 6370,
      "Ġfount": 6371,
      "Ġfift": 6372,
      "Ġfingers": 6373,
      "Ġfrank": 6374,
      "Ġfolks": 6375,
      "onio": 6376,
      "Ġdot": 6377,
      "Ġdine": 6378,
      "Ġdried": 6379,
      "Ġdined": 6380,
      "Ġdash": 6381,
      "Ġdiest": 6382,
      "Ġdrift": 6383,
      "Ġcord": 6384,
      "Ġcro": 6385,
      "Ġcab": 6386,
      "Ġcool": 6387,
      "Ġcrows": 6388,
      "Ġcords": 6389,
      "ening": 6390,
      "ened": 6391,
      "enches": 6392,
      "Ġnort": 6393,
      "Ġnigh": 6394,
      "Ġnamed": 6395,
      "Ġnimble": 6396,
      "Ġlute": 6397,
      "Ġlads": 6398,
      "Ġlying": 6399,
      "Ġlinger": 6400,
      "Ġthw": 6401,
      "Ġthrown": 6402,
      "Ġhill": 6403,
      "Ġpow": 6404,
      "Ġpour": 6405,
      "Ġpest": 6406,
      "Ġpant": 6407,
      "Ġpup": 6408,
      "Ġpict": 6409,
      "Ġheel": 6410,
      "Ġheinous": 6411,
      "otland": 6412,
      "Ġgust": 6413,
      "Ġgather": 6414,
      "Ġgaunt": 6415,
      "Ġbeef": 6416,
      "see": 6417,
      "Ġinward": 6418,
      "Ġhag": 6419,
      "Ġhaunt": 6420,
      "lect": 6421,
      "aying": 6422,
      "etition": 6423,
      "Ġmeed": 6424,
      "Ġmeal": 6425,
      "iments": 6426,
      "Ġnotice": 6427,
      "Ġforso": 6428,
      "Ġug": 6429,
      "Ġwears": 6430,
      "Ġeight": 6431,
      "Ġeff": 6432,
      "advent": 6433,
      "ril": 6434,
      "rial": 6435,
      "Ġstink": 6436,
      "Ġstag": 6437,
      "Ġsteep": 6438,
      "Ġstiff": 6439,
      "Ġkites": 6440,
      "iders": 6441,
      "asant": 6442,
      "Ġrein": 6443,
      "Ġrevive": 6444,
      "rament": 6445,
      "Ġlick": 6446,
      "Ġlief": 6447,
      "urb": 6448,
      "uring": 6449,
      "alks": 6450,
      "Ġashes": 6451,
      "Ġassem": 6452,
      "Ġdeer": 6453,
      "Ġdece": 6454,
      "Ġdeform": 6455,
      "roach": 6456,
      "Ġshade": 6457,
      "Ġdole": 6458,
      "amy": 6459,
      "amity": 6460,
      "aments": 6461,
      "Ġnod": 6462,
      "Ġnoon": 6463,
      "ushi": 6464,
      "anders": 6465,
      "Ġsearch": 6466,
      "Throw": 6467,
      "Ġann": 6468,
      "Ġancest": 6469,
      "Ġlodge": 6470,
      "Ġloathed": 6471,
      "ella": 6472,
      "Ġspark": 6473,
      "Ġspider": 6474,
      "Ġspurs": 6475,
      "ĠCambio": 6476,
      "ĠCupid": 6477,
      "Ġvul": 6478,
      "Ġvass": 6479,
      "Ġvouch": 6480,
      "Ġvial": 6481,
      "Ġventure": 6482,
      "ctor": 6483,
      "ousins": 6484,
      "Ġwhatsoever": 6485,
      "Ġshot": 6486,
      "Ġshown": 6487,
      "ules": 6488,
      "arthage": 6489,
      "Ġprate": 6490,
      "Ġprint": 6491,
      "Ġprating": 6492,
      "Ġmanhood": 6493,
      "ĠEven": 6494,
      "Ġamaz": 6495,
      "icle": 6496,
      "ication": 6497,
      "ived": 6498,
      "ively": 6499,
      "Ġblot": 6500,
      "Ġblue": 6501,
      "Ġblown": 6502,
      "Ġbliss": 6503,
      "Ġblaze": 6504,
      "Ġblushing": 6505,
      "embroke": 6506,
      "Ġtheme": 6507,
      "ĠLove": 6508,
      "Ġthereto": 6509,
      "Ġcanop": 6510,
      "eptune": 6511,
      "Ġherein": 6512,
      "Ġswoon": 6513,
      "Ġbranch": 6514,
      "Ġorator": 6515,
      "ĠSly": 6516,
      "ĠSunday": 6517,
      "ĠSycor": 6518,
      "ĠBagot": 6519,
      "ĠBenvolio": 6520,
      "Ġarise": 6521,
      "Ġunlike": 6522,
      "Ġunruly": 6523,
      "Ġworms": 6524,
      "Ġworser": 6525,
      "ĠHave": 6526,
      "Ġmustard": 6527,
      "Ġgraces": 6528,
      "Ġseeks": 6529,
      "Ġlikeli": 6530,
      "Ġshoulders": 6531,
      "ĠPoor": 6532,
      "Ġsack": 6533,
      "Ġsaved": 6534,
      "Ġplan": 6535,
      "peian": 6536,
      "ĠWest": 6537,
      "ĠWednesday": 6538,
      "Ġenforced": 6539,
      "Ġenrich": 6540,
      "unis": 6541,
      "uned": 6542,
      "fulness": 6543,
      "Ġrhe": 6544,
      "Ġranc": 6545,
      "Ġrush": 6546,
      "Ġroof": 6547,
      "Ġrushes": 6548,
      "Ġpock": 6549,
      "Ġpopular": 6550,
      "death": 6551,
      "ption": 6552,
      "Ġoffences": 6553,
      "Ġdiso": 6554,
      "Ġalar": 6555,
      "Ġaloud": 6556,
      "Ġalso": 6557,
      "ABRA": 6558,
      "Ġbrotherhood": 6559,
      "Ġfox": 6560,
      "Ġroses": 6561,
      "Ġroaring": 6562,
      "Ġexceed": 6563,
      "Ġrig": 6564,
      "Ġleap": 6565,
      "Ġleaving": 6566,
      "Ġslily": 6567,
      "Ġflock": 6568,
      "ĠTime": 6569,
      "ĠTew": 6570,
      "ĠTroy": 6571,
      "ĠTullus": 6572,
      "ĠTribunes": 6573,
      "ffic": 6574,
      "ĠKent": 6575,
      "Ġcommends": 6576,
      "Ġcler": 6577,
      "Ġsweetest": 6578,
      "Ġplebe": 6579,
      "Ġperfection": 6580,
      "Ġwring": 6581,
      "awful": 6582,
      "Ġtrim": 6583,
      "Ġotherwise": 6584,
      "Ġmeaner": 6585,
      "lier": 6586,
      "Ġscore": 6587,
      "Ġnighting": 6588,
      "Ġrace": 6589,
      "Thank": 6590,
      "these": 6591,
      "ĠFourth": 6592,
      "Ġdownfall": 6593,
      "together": 6594,
      "Ġappears": 6595,
      "Ġcontri": 6596,
      "GREY": 6597,
      "Ġwhist": 6598,
      "Northumberland": 6599,
      "Ġmothers": 6600,
      "Ġeverlast": 6601,
      "ksbury": 6602,
      "ĠJup": 6603,
      "Ġrum": 6604,
      "Ġpeer": 6605,
      "Ġlevel": 6606,
      "Ġharl": 6607,
      "Ġharvest": 6608,
      "Ġharbour": 6609,
      "Ġrests": 6610,
      "Ġsettled": 6611,
      "attern": 6612,
      "oses": 6613,
      "Ġmoe": 6614,
      "Ġmoving": 6615,
      "Ġmoiety": 6616,
      "Ġbestri": 6617,
      "Ġhenceforth": 6618,
      "Ġaccomp": 6619,
      "Ġfaced": 6620,
      "ulting": 6621,
      "Ġendured": 6622,
      "Ġpursue": 6623,
      "Ġcompare": 6624,
      "Ġcompound": 6625,
      "Ġchamp": 6626,
      "Ġdearth": 6627,
      "twould": 6628,
      "Ġtrees": 6629,
      "Ġhomely": 6630,
      "Ġbrand": 6631,
      "isterous": 6632,
      "Ġcharges": 6633,
      "Ġchances": 6634,
      "Ġchanging": 6635,
      "Ġconfidence": 6636,
      "Ġconfeder": 6637,
      "Ġcoast": 6638,
      "Ġcozen": 6639,
      "Ġimpeach": 6640,
      "Ġlights": 6641,
      "Ġroyalties": 6642,
      "Ġbeside": 6643,
      "Ġfully": 6644,
      "Ġdevour": 6645,
      "Ġwronged": 6646,
      "Ġmischief": 6647,
      "Ġlasting": 6648,
      "blance": 6649,
      "Ġafterward": 6650,
      "Ġthousands": 6651,
      "Ġholding": 6652,
      "Ġpatron": 6653,
      "Ġfallen": 6654,
      "Ġfalling": 6655,
      "Ġstrife": 6656,
      "ivant": 6657,
      "Ġhumility": 6658,
      "Ġbelong": 6659,
      "Ġbelieved": 6660,
      "Ġtalking": 6661,
      "Ġgrim": 6662,
      "Ġgrass": 6663,
      "Ġdram": 6664,
      "Ġserious": 6665,
      "Ġboisterous": 6666,
      "Ġadvoc": 6667,
      "Ġmerchant": 6668,
      "Ġrevenue": 6669,
      "Ġdoubtful": 6670,
      "Ġdancing": 6671,
      "Ġpersons": 6672,
      "Ġdischarge": 6673,
      "Attend": 6674,
      "Ġcommands": 6675,
      "Ġwindow": 6676,
      "ittany": 6677,
      "Ġcrab": 6678,
      "Ġhangman": 6679,
      "Ġproudest": 6680,
      "Twixt": 6681,
      "Ġintents": 6682,
      "Ġyielding": 6683,
      "Ġbreaks": 6684,
      "Ġmerri": 6685,
      "Ġtemple": 6686,
      "Ġrequire": 6687,
      "Ġdefy": 6688,
      "Ġlately": 6689,
      "Ġtenderness": 6690,
      "Ġsadly": 6691,
      "Ġchose": 6692,
      "Ġgrowth": 6693,
      "Ġasking": 6694,
      "Ġreported": 6695,
      "shine": 6696,
      "Ġwatery": 6697,
      "ĠMontagues": 6698,
      "Ġbattles": 6699,
      "Ġcrying": 6700,
      "Ġlearning": 6701,
      "Ġlearned": 6702,
      "Ġentreaty": 6703,
      "Ġdevils": 6704,
      "Ġmurders": 6705,
      "Ġsilk": 6706,
      "Ġboldness": 6707,
      "Ġruns": 6708,
      "Ġrevengeful": 6709,
      "Happ": 6710,
      "Happy": 6711,
      "voc": 6712,
      "Ġspeedy": 6713,
      "Ġquarter": 6714,
      "Ġconfessor": 6715,
      "ĠNed": 6716,
      "ĠNeptune": 6717,
      "Ġforehead": 6718,
      "Ġterr": 6719,
      "Ġminutes": 6720,
      "Ġrecreant": 6721,
      "Ġdelicate": 6722,
      "Ġdespised": 6723,
      "Ġbosoms": 6724,
      "Ġharmony": 6725,
      "Ġguiltless": 6726,
      "Ġattended": 6727,
      "Ġmurderous": 6728,
      "Ġveil": 6729,
      "Ġdistra": 6730,
      "Ġdistress": 6731,
      "Ġacts": 6732,
      "Ġwonderful": 6733,
      "Ġsingular": 6734,
      "Ġmusician": 6735,
      "Ġclosed": 6736,
      "Ġwaits": 6737,
      "Ġburden": 6738,
      "Ġsuffering": 6739,
      "Ġbreasts": 6740,
      "Ġwedded": 6741,
      "Ġdukes": 6742,
      "shearing": 6743,
      "Ġwisely": 6744,
      "Ġfeasts": 6745,
      "eshrew": 6746,
      "Ġgroom": 6747,
      "Ġredempt": 6748,
      "Ġbeggars": 6749,
      "Read": 6750,
      "Ready": 6751,
      "Swear": 6752,
      "ĠFortune": 6753,
      "Ġcrim": 6754,
      "Ġcrook": 6755,
      "Ġcrush": 6756,
      "standing": 6757,
      "Ġinterrupt": 6758,
      "Ġundo": 6759,
      "Ġevils": 6760,
      "Ġsumm": 6761,
      "ĠVolscians": 6762,
      "ĠVolscian": 6763,
      "Ġvisitation": 6764,
      "Ġbowl": 6765,
      "Ġbaby": 6766,
      "Ġframed": 6767,
      "Ġsafely": 6768,
      "Ġsafeguard": 6769,
      "Ġknocks": 6770,
      "Ġsacrament": 6771,
      "Ġleaden": 6772,
      "Ġlamentation": 6773,
      "ĠIsabella": 6774,
      "Ġignoble": 6775,
      "Ġclean": 6776,
      "Ġoppression": 6777,
      "Ġapproved": 6778,
      "Ġapprobation": 6779,
      "Ġcomplaint": 6780,
      "Ġdrinking": 6781,
      "Ġsurfeit": 6782,
      "Ġmidst": 6783,
      "Ġmidwife": 6784,
      "Ġdestiny": 6785,
      "Ġsmallest": 6786,
      "Confess": 6787,
      "Ġeasily": 6788,
      "Stands": 6789,
      "Ġdamnable": 6790,
      "Ġutmost": 6791,
      "Ġmildly": 6792,
      "Ġcauses": 6793,
      "Ġpuiss": 6794,
      "Ġpitied": 6795,
      "Ġinjustice": 6796,
      "Ġinsinu": 6797,
      "Ġproceedings": 6798,
      "Ġapart": 6799,
      "Ġmedic": 6800,
      "Ġmodel": 6801,
      "Ġfamiliar": 6802,
      "Ġreigns": 6803,
      "Ġprosperity": 6804,
      "Ġlenity": 6805,
      "Ġlowly": 6806,
      "angling": 6807,
      "Ġbending": 6808,
      "Ġslanderous": 6809,
      "ĠCapulets": 6810,
      "Ġmountain": 6811,
      "Ġunpro": 6812,
      "Ġunworthy": 6813,
      "Ġprovided": 6814,
      "Ġplants": 6815,
      "Ġneighbours": 6816,
      "Ġglasses": 6817,
      "Ġextremes": 6818,
      "when": 6819,
      "Ġconclusion": 6820,
      "Ġimagination": 6821,
      "rateful": 6822,
      "Ġunlook": 6823,
      "Ġunluck": 6824,
      "ĠAlban": 6825,
      "govern": 6826,
      "Ġavoided": 6827,
      "Ġeager": 6828,
      "Ġloathsome": 6829,
      "Ġloyalty": 6830,
      "Ġaims": 6831,
      "Ġsensible": 6832,
      "Ġcrept": 6833,
      "Ġpilot": 6834,
      "Ġstatutes": 6835,
      "Ġchiefest": 6836,
      "cannot": 6837,
      "Ġcalamity": 6838,
      "Ġpinch": 6839,
      "Ġinfected": 6840,
      "Ġstocks": 6841,
      "Ġdearer": 6842,
      "Ġangels": 6843,
      "Ġlodged": 6844,
      "Ġlodging": 6845,
      "Ġpursuit": 6846,
      "Ġconqueror": 6847,
      "Prepare": 6848,
      "Ġtutor": 6849,
      "Ġfleet": 6850,
      "Ġfrozen": 6851,
      "ARCHBISHOP": 6852,
      "Ġadvanced": 6853,
      "Ġcorruption": 6854,
      "Ġmagist": 6855,
      "Ġconcerns": 6856,
      "Ġcloak": 6857,
      "Ġwhoreson": 6858,
      "Ġcompassion": 6859,
      "bric": 6860,
      "Ġstolen": 6861,
      "Ġsprings": 6862,
      "Ġswelling": 6863,
      "Ġabhorr": 6864,
      "Ġadverse": 6865,
      "Ġperjured": 6866,
      "Suppose": 6867,
      "Ġmultitude": 6868,
      "Ġnails": 6869,
      "Ġlinea": 6870,
      "Ġpiercing": 6871,
      "Ġinquire": 6872,
      "Ġclimate": 6873,
      "Ġwrinkled": 6874,
      "Ġwhispering": 6875,
      "Ġcorrection": 6876,
      "ĠAntium": 6877,
      "Ġcircumstance": 6878,
      "Lieutenant": 6879,
      "Sometime": 6880,
      "craft": 6881,
      "favour": 6882,
      "Ġtaunts": 6883,
      "Ġmoody": 6884,
      "Ġsteward": 6885,
      "Ġmanifest": 6886,
      "Ġbranches": 6887,
      "Ġunwilling": 6888,
      "ĠTarpeian": 6889,
      "Ġincensed": 6890,
      "Ġsubstitute": 6891,
      "Ġflatterers": 6892,
      "Mistake": 6893,
      "Ġtiger": 6894,
      "Ġmilk": 6895,
      "Ġnumbers": 6896,
      "Ġhinder": 6897,
      "Ġpearl": 6898,
      "Ġbereft": 6899,
      "Ġornaments": 6900,
      "ĠBrittany": 6901,
      "Ġunseen": 6902,
      "Ġdisgraced": 6903,
      "Ġtrifles": 6904,
      "Ġserpent": 6905,
      "Ġsufficient": 6906,
      "Ġestimation": 6907,
      "Ġoccupation": 6908,
      "Break": 6909,
      "Virtue": 6910,
      "Ġeternal": 6911,
      "Ġtardy": 6912,
      "Ġsurpr": 6913,
      "Ġfantast": 6914,
      "Ġlunatic": 6915,
      "Ġhistory": 6916,
      "Ġconsequence": 6917,
      "Ġmarshal": 6918,
      "Ġmarvellous": 6919,
      "Ġprophesy": 6920,
      "Ġceremonious": 6921,
      "Murder": 6922,
      "Ġafeard": 6923,
      "Ġsixteen": 6924,
      "Ġmoment": 6925,
      "Ġmurdered": 6926,
      "Ġfrantic": 6927,
      "Ġfifteen": 6928,
      "Ġcabin": 6929,
      "Ġnorthern": 6930,
      "Ġforsooth": 6931,
      "adventure": 6932,
      "ĠSycorax": 6933,
      "Ġlikelihood": 6934,
      "ABRAHAM": 6935,
      "ĠTewksbury": 6936,
      "ĠJupiter": 6937,
      "Ġadvocate": 6938,
      "Ġredemption": 6939,
      "Again": 6940,
      "Aff": 6941,
      "AGE": 6942,
      "Aumerle": 6943,
      "Apollo": 6944,
      "Apothecary": 6945,
      "Ban": 6946,
      "BON": 6947,
      "Bold": 6948,
      "Bless": 6949,
      "Cle": 6950,
      "Cast": 6951,
      "Cold": 6952,
      "Carry": 6953,
      "Cursed": 6954,
      "Den": 6955,
      "Dest": 6956,
      "Def": 6957,
      "DION": 6958,
      "Direct": 6959,
      "Er": 6960,
      "End": 6961,
      "Every": 6962,
      "EMI": 6963,
      "Fit": 6964,
      "Fill": 6965,
      "Fourth": 6966,
      "Gain": 6967,
      "Grand": 6968,
      "Groom": 6969,
      "Ho": 6970,
      "Har": 6971,
      "High": 6972,
      "Huntsman": 6973,
      "Imp": 6974,
      "Just": 6975,
      "Join": 6976,
      "Keeper": 6977,
      "Left": 6978,
      "Music": 6979,
      "NATH": 6980,
      "Open": 6981,
      "Obey": 6982,
      "Pres": 6983,
      "PAGE": 6984,
      "Ren": 6985,
      "Run": 6986,
      "Ratcliff": 6987,
      "Sus": 6988,
      "Sic": 6989,
      "Trust": 6990,
      "Ur": 6991,
      "Wife": 6992,
      "Worse": 6993,
      "ais": 6994,
      "aches": 6995,
      "avish": 6996,
      "bon": 6997,
      "bot": 6998,
      "bat": 6999,
      "bid": 7000,
      "bur": 7001,
      "best": 7002,
      "bel": 7003,
      "bles": 7004,
      "bearer": 7005,
      "co": 7006,
      "cis": 7007,
      "cour": 7008,
      "cri": 7009,
      "core": 7010,
      "cast": 7011,
      "count": 7012,
      "cured": 7013,
      "cals": 7014,
      "dra": 7015,
      "dist": 7016,
      "daughter": 7017,
      "door": 7018,
      "duce": 7019,
      "eks": 7020,
      "fly": 7021,
      "fend": 7022,
      "found": 7023,
      "franch": 7024,
      "gea": 7025,
      "gage": 7026,
      "grown": 7027,
      "gled": 7028,
      "greed": 7029,
      "hur": 7030,
      "honour": 7031,
      "iqu": 7032,
      "ivers": 7033,
      "jud": 7034,
      "kn": 7035,
      "kens": 7036,
      "lm": 7037,
      "lu": 7038,
      "leness": 7039,
      "mar": 7040,
      "mal": 7041,
      "make": 7042,
      "mind": 7043,
      "much": 7044,
      "mission": 7045,
      "nut": 7046,
      "name": 7047,
      "never": 7048,
      "nothing": 7049,
      "oa": 7050,
      "og": 7051,
      "overy": 7052,
      "occ": 7053,
      "ops": 7054,
      "opher": 7055,
      "ph": 7056,
      "po": 7057,
      "pre": 7058,
      "por": 7059,
      "put": 7060,
      "phan": 7061,
      "pers": 7062,
      "pres": 7063,
      "pire": 7064,
      "ples": 7065,
      "point": 7066,
      "picious": 7067,
      "sion": 7068,
      "spe": 7069,
      "sick": 7070,
      "sign": 7071,
      "such": 7072,
      "side": 7073,
      "somet": 7074,
      "scape": 7075,
      "ton": 7076,
      "ule": 7077,
      "uish": 7078,
      "uced": 7079,
      "ukes": 7080,
      "vil": 7081,
      "vance": 7082,
      "wit": 7083,
      "who": 7084,
      "why": 7085,
      "weet": 7086,
      "were": 7087,
      "witted": 7088,
      "yp": 7089,
      "yet": 7090,
      "ĠU": 7091,
      "Ġire": 7092,
      "ĠNo": 7093,
      "ĠThus": 7094,
      "Ġton": 7095,
      "Ġtur": 7096,
      "Ġtea": 7097,
      "Ġtink": 7098,
      "Ġtreat": 7099,
      "Ġtents": 7100,
      "Ġtainted": 7101,
      "Ġtailor": 7102,
      "Ġtamed": 7103,
      "Ġtumble": 7104,
      "Ġack": 7105,
      "Ġafore": 7106,
      "Ġape": 7107,
      "ouches": 7108,
      "Ġsith": 7109,
      "Ġsine": 7110,
      "Ġsitting": 7111,
      "Ġsiege": 7112,
      "Ġmast": 7113,
      "Ġmant": 7114,
      "Ġmuff": 7115,
      "Ġmiles": 7116,
      "iner": 7117,
      "Ġwester": 7118,
      "Ġwilful": 7119,
      "reth": 7120,
      "report": 7121,
      "has": 7122,
      "haeth": 7123,
      "Ġbought": 7124,
      "Ġbishop": 7125,
      "isc": 7126,
      "isher": 7127,
      "isome": 7128,
      "oricles": 7129,
      "Ġfet": 7130,
      "Ġfem": 7131,
      "Ġfits": 7132,
      "Ġfulf": 7133,
      "erous": 7134,
      "lly": 7135,
      "lling": 7136,
      "itan": 7137,
      "once": 7138,
      "Ġder": 7139,
      "Ġdom": 7140,
      "Ġded": 7141,
      "Ġdil": 7142,
      "Ġdame": 7143,
      "Ġdiet": 7144,
      "Ġdrows": 7145,
      "Ġdumb": 7146,
      "Ġcand": 7147,
      "Ġcave": 7148,
      "Ġcuck": 7149,
      "Ġcrest": 7150,
      "Ġcrew": 7151,
      "Ġcurious": 7152,
      "Ġcushi": 7153,
      "Ġcousins": 7154,
      "Ġnon": 7155,
      "Ġnaught": 7156,
      "Ġnourish": 7157,
      "Ġlink": 7158,
      "Ġlace": 7159,
      "Ġloose": 7160,
      "Ġlung": 7161,
      "Ġlends": 7162,
      "Ġlatest": 7163,
      "Ġyare": 7164,
      "Ġyester": 7165,
      "Ġthrees": 7166,
      "arison": 7167,
      "Ġhood": 7168,
      "Ġom": 7169,
      "Ġobt": 7170,
      "Ġtoe": 7171,
      "Ġtoken": 7172,
      "Ġtoads": 7173,
      "Ġtower": 7174,
      "Ġpine": 7175,
      "Ġpate": 7176,
      "Ġpuff": 7177,
      "Ġpedant": 7178,
      "Ġpounds": 7179,
      "Ġpattern": 7180,
      "Ġheal": 7181,
      "Ġheigh": 7182,
      "stra": 7183,
      "stone": 7184,
      "strong": 7185,
      "strel": 7186,
      "owick": 7187,
      "ank": 7188,
      "omenes": 7189,
      "Ġgam": 7190,
      "Ġgame": 7191,
      "Ġgaz": 7192,
      "Ġgrum": 7193,
      "Ġgeld": 7194,
      "Ġgulf": 7195,
      "Ġgloves": 7196,
      "ato": 7197,
      "atient": 7198,
      "Ġbeet": 7199,
      "Ġbeads": 7200,
      "seth": 7201,
      "Ġinve": 7202,
      "Ġinch": 7203,
      "Ġinvent": 7204,
      "Ġinherit": 7205,
      "cel": 7206,
      "ceives": 7207,
      "ceiving": 7208,
      "Ġhaw": 7209,
      "Ġhall": 7210,
      "Ġhalt": 7211,
      "ediment": 7212,
      "Ġmellow": 7213,
      "imo": 7214,
      "ims": 7215,
      "Ġnotes": 7216,
      "Ġnotwith": 7217,
      "chool": 7218,
      "child": 7219,
      "Ġforces": 7220,
      "key": 7221,
      "Ġweed": 7222,
      "illed": 7223,
      "Ġelo": 7224,
      "Ġebb": 7225,
      "herited": 7226,
      "entious": 7227,
      "ado": 7228,
      "adem": 7229,
      "adise": 7230,
      "rion": 7231,
      "riam": 7232,
      "rief": 7233,
      "rieve": 7234,
      "Ġstu": 7235,
      "Ġstem": 7236,
      "Ġstark": 7237,
      "Ġstaff": 7238,
      "ghts": 7239,
      "idd": 7240,
      "iding": 7241,
      "asy": 7242,
      "asing": 7243,
      "asures": 7244,
      "Ġrent": 7245,
      "Ġrender": 7246,
      "Ġresem": 7247,
      "raken": 7248,
      "rails": 7249,
      "Ġliar": 7250,
      "Ġliqu": 7251,
      "urvy": 7252,
      "Ġsolic": 7253,
      "Ġashore": 7254,
      "Ġdeceive": 7255,
      "Ġdefect": 7256,
      "aining": 7257,
      "verse": 7258,
      "verdone": 7259,
      "estiv": 7260,
      "eap": 7261,
      "earest": 7262,
      "Ġdoct": 7263,
      "Ġdoves": 7264,
      "Ġdoors": 7265,
      "Ġnoses": 7266,
      "Ġbutter": 7267,
      "using": 7268,
      "usiness": 7269,
      "ifth": 7270,
      "Ġsear": 7271,
      "Ġsequ": 7272,
      "Ġallay": 7273,
      "Ġallies": 7274,
      "Ġsued": 7275,
      "Ġsung": 7276,
      "Ġsunder": 7277,
      "Ġsugg": 7278,
      "Ġsugar": 7279,
      "Ġherbs": 7280,
      "thw": 7281,
      "throw": 7282,
      "thrift": 7283,
      "Ġansw": 7284,
      "Ġantic": 7285,
      "terate": 7286,
      "Ġloins": 7287,
      "Ġlocks": 7288,
      "Ġspar": 7289,
      "Ġsped": 7290,
      "Ġspilt": 7291,
      "Ġspices": 7292,
      "Ġspiders": 7293,
      "Ġfaction": 7294,
      "ĠCle": 7295,
      "ĠCaptain": 7296,
      "ĠCarthage": 7297,
      "Ġnegl": 7298,
      "hoeb": 7299,
      "Ġknit": 7300,
      "ANIEL": 7301,
      "ĠRo": 7302,
      "Ġvi": 7303,
      "Ġvine": 7304,
      "Ġvig": 7305,
      "cts": 7306,
      "Ġshout": 7307,
      "Ġshower": 7308,
      "ulous": 7309,
      "antime": 7310,
      "quet": 7311,
      "athom": 7312,
      "Whate": 7313,
      "ĠMadam": 7314,
      "Ġwhet": 7315,
      "Ġwheel": 7316,
      "Ġamend": 7317,
      "ending": 7318,
      "icial": 7319,
      "bled": 7320,
      "iel": 7321,
      "ivered": 7322,
      "Ġblister": 7323,
      "Ġblade": 7324,
      "venient": 7325,
      "ĠGentle": 7326,
      "Forth": 7327,
      "Forbear": 7328,
      "Forgive": 7329,
      "Forbid": 7330,
      "olar": 7331,
      "olve": 7332,
      "olour": 7333,
      "ĠLam": 7334,
      "ĠLod": 7335,
      "ĠLeave": 7336,
      "Ġhatch": 7337,
      "Ġcanker": 7338,
      "feel": 7339,
      "feits": 7340,
      "ressed": 7341,
      "ately": 7342,
      "Ġbrass": 7343,
      "ppet": 7344,
      "pped": 7345,
      "Ġorphan": 7346,
      "allel": 7347,
      "ĠShe": 7348,
      "ĠSweet": 7349,
      "Ġusure": 7350,
      "ĠBes": 7351,
      "ĠBraken": 7352,
      "Ġarch": 7353,
      "Ġargu": 7354,
      "Ġarbit": 7355,
      "Ġunple": 7356,
      "Ġunrest": 7357,
      "Ġworshi": 7358,
      "ĠHa": 7359,
      "ĠHear": 7360,
      "ĠHerc": 7361,
      "elting": 7362,
      "Ġquake": 7363,
      "Ġquaint": 7364,
      "Ġjade": 7365,
      "Ġjoc": 7366,
      "Ġmusty": 7367,
      "Ġgraft": 7368,
      "Ġhole": 7369,
      "cip": 7370,
      "cially": 7371,
      "Ġprog": 7372,
      "Ġprocure": 7373,
      "ĠPercy": 7374,
      "ĠPatri": 7375,
      "ĠPembroke": 7376,
      "ĠPhaeth": 7377,
      "ĠPhoeb": 7378,
      "Ġsap": 7379,
      "Ġmadly": 7380,
      "Ġmadest": 7381,
      "Ġmadman": 7382,
      "ums": 7383,
      "umes": 7384,
      "umps": 7385,
      "uments": 7386,
      "umny": 7387,
      "Ġplate": 7388,
      "Ġplaints": 7389,
      "people": 7390,
      "ĠWh": 7391,
      "ĠWelcome": 7392,
      "ĠWales": 7393,
      "ĠWalter": 7394,
      "owned": 7395,
      "Ġrats": 7396,
      "Ġrites": 7397,
      "Ġrising": 7398,
      "Ġpox": 7399,
      "Ġpoll": 7400,
      "ptory": 7401,
      "ĠAh": 7402,
      "ĠAm": 7403,
      "ĠAr": 7404,
      "Ġtruer": 7405,
      "Thoughts": 7406,
      "Ġmarr": 7407,
      "Ġmarble": 7408,
      "Ġmariners": 7409,
      "Ins": 7410,
      "Infer": 7411,
      "acks": 7412,
      "Ġdisl": 7413,
      "Ġdisorder": 7414,
      "Ġaloof": 7415,
      "Ġaltogether": 7416,
      "Ġheap": 7417,
      "oyal": 7418,
      "Ġhears": 7419,
      "echer": 7420,
      "eches": 7421,
      "Ġabst": 7422,
      "Ġabod": 7423,
      "Ġfold": 7424,
      "Ġfoil": 7425,
      "Ġearl": 7426,
      "Ġearldom": 7427,
      "Ġrode": 7428,
      "Ġrocks": 7429,
      "Ġexclaim": 7430,
      "Ġexact": 7431,
      "Ġexperience": 7432,
      "Ġlooker": 7433,
      "agine": 7434,
      "ervation": 7435,
      "aved": 7436,
      "Ġripen": 7437,
      "Ġridd": 7438,
      "Ġrivers": 7439,
      "tised": 7440,
      "Wherefore": 7441,
      "Ġslack": 7442,
      "Ġwarn": 7443,
      "Ġflame": 7444,
      "ĠTur": 7445,
      "ĠTunis": 7446,
      "ffer": 7447,
      "Ġbreeding": 7448,
      "izab": 7449,
      "sses": 7450,
      "Ġclap": 7451,
      "Ġprec": 7452,
      "Ġpreced": 7453,
      "Ġprerog": 7454,
      "Ġsweets": 7455,
      "Ġprays": 7456,
      "Ġnobleman": 7457,
      "Ġpledge": 7458,
      "ĠDoricles": 7459,
      "Ġperd": 7460,
      "Ġperf": 7461,
      "Ġpermit": 7462,
      "Ġwrangling": 7463,
      "aws": 7464,
      "Ġtrades": 7465,
      "Ġwayward": 7466,
      "Ġheadstrong": 7467,
      "lip": 7468,
      "Ġscour": 7469,
      "Ġscru": 7470,
      "Ġscape": 7471,
      "Ġpreserved": 7472,
      "Ġqueens": 7473,
      "Ġchival": 7474,
      "Ġrages": 7475,
      "Ġraging": 7476,
      "Ġraiment": 7477,
      "Ġragged": 7478,
      "their": 7479,
      "abour": 7480,
      "ĠFear": 7481,
      "ĠFran": 7482,
      "Ġapply": 7483,
      "Ġappell": 7484,
      "Ġappoint": 7485,
      "Ġarmed": 7486,
      "Norfolk": 7487,
      "sweet": 7488,
      "Ġbegot": 7489,
      "range": 7490,
      "Ġmale": 7491,
      "Ġimmediate": 7492,
      "Ġlongest": 7493,
      "ĠMarch": 7494,
      "Ġreplied": 7495,
      "Ġrepossess": 7496,
      "Ġrepetition": 7497,
      "Ġfriendship": 7498,
      "Ġafoot": 7499,
      "ĠJer": 7500,
      "ĠJun": 7501,
      "ĠJOHN": 7502,
      "ĠJesu": 7503,
      "Ġconspir": 7504,
      "Ġconsumed": 7505,
      "Ġconsidered": 7506,
      "Ġperem": 7507,
      "Ġlevy": 7508,
      "Ġentrails": 7509,
      "Ġlieutenant": 7510,
      "chelor": 7511,
      "Ġresort": 7512,
      "Ġrescue": 7513,
      "Ġtried": 7514,
      "Ġmoan": 7515,
      "Ġfollies": 7516,
      "Ġprivy": 7517,
      "Thyself": 7518,
      "Ġchaf": 7519,
      "Ġchap": 7520,
      "Ġpeaceful": 7521,
      "Ġelsewhere": 7522,
      "ailing": 7523,
      "asonable": 7524,
      "Ġbackward": 7525,
      "Ġcounted": 7526,
      "Ġladyship": 7527,
      "Ġneedle": 7528,
      "Ġneedless": 7529,
      "Ġtrembles": 7530,
      "Ġhighway": 7531,
      "Stanley": 7532,
      "Ġhusbands": 7533,
      "Ġbanquet": 7534,
      "Ġminded": 7535,
      "Ġbraved": 7536,
      "Ġchest": 7537,
      "Ġbribe": 7538,
      "Ġshowers": 7539,
      "Ġconfer": 7540,
      "Ġconfines": 7541,
      "Ġconfusion": 7542,
      "Ġcoz": 7543,
      "Ġcoal": 7544,
      "Ġcoals": 7545,
      "Ġcaused": 7546,
      "Ġglories": 7547,
      "Ġimpart": 7548,
      "Ġimpud": 7549,
      "Ġimpatience": 7550,
      "Ġimpression": 7551,
      "Ġimpatient": 7552,
      "Ġimpediment": 7553,
      "Ġbodes": 7554,
      "Ġmistaking": 7555,
      "Ġlightly": 7556,
      "Ġlightness": 7557,
      "Ġnatures": 7558,
      "Ġpardons": 7559,
      "Claudio": 7560,
      "Ġbeseem": 7561,
      "Ġhappier": 7562,
      "Ġdevice": 7563,
      "blown": 7564,
      "Ġunderne": 7565,
      "Ġundergo": 7566,
      "Ġkilled": 7567,
      "Ġfollowing": 7568,
      "Ġfarm": 7569,
      "Ġsunshine": 7570,
      "Ġbush": 7571,
      "Any": 7572,
      "Ġstreet": 7573,
      "Ġstream": 7574,
      "Ġturned": 7575,
      "Ġcomforts": 7576,
      "Ġcomfortable": 7577,
      "Ġsleeps": 7578,
      "Ġsleepy": 7579,
      "itories": 7580,
      "Ġwelcomes": 7581,
      "Ġthankful": 7582,
      "Ġbox": 7583,
      "Ġboon": 7584,
      "Ġboat": 7585,
      "Ġfights": 7586,
      "Ġfighting": 7587,
      "holds": 7588,
      "Ġfalsely": 7589,
      "plish": 7590,
      "Ġmerciful": 7591,
      "Ġmatters": 7592,
      "Ġassault": 7593,
      "Ġprisoners": 7594,
      "Ġdangers": 7595,
      "Ġdreamt": 7596,
      "enerate": 7597,
      "Ġstrait": 7598,
      "Ġdischarged": 7599,
      "Ġcommanding": 7600,
      "Ġdared": 7601,
      "Twill": 7602,
      "Twice": 7603,
      "Twenty": 7604,
      "comp": 7605,
      "Ġsisterhood": 7606,
      "Ġfouler": 7607,
      "versy": 7608,
      "Ġdenial": 7609,
      "Ġawry": 7610,
      "Ġmerrim": 7611,
      "Ġsupport": 7612,
      "Ġsuppose": 7613,
      "Ġsuppli": 7614,
      "Ġbeating": 7615,
      "Ġrequires": 7616,
      "Ġrequired": 7617,
      "Ġvalue": 7618,
      "Ġaffright": 7619,
      "Ġwoeful": 7620,
      "Ġtenderly": 7621,
      "Ġreturned": 7622,
      "mph": 7623,
      "mpet": 7624,
      "Ġdeeper": 7625,
      "Ġdeeply": 7626,
      "Ġfootman": 7627,
      "Ġchop": 7628,
      "Ġcoldly": 7629,
      "Ġnursed": 7630,
      "azon": 7631,
      "Ġplucks": 7632,
      "shining": 7633,
      "xton": 7634,
      "Ġairy": 7635,
      "Ġsuffice": 7636,
      "Ġpastime": 7637,
      "Ġfasting": 7638,
      "Ġsilken": 7639,
      "Ġstrongly": 7640,
      "Canst": 7641,
      "Ġpossessed": 7642,
      "voke": 7643,
      "voided": 7644,
      "Ġinfring": 7645,
      "Ġinfirm": 7646,
      "Ġprofan": 7647,
      "Ġprofits": 7648,
      "Ġconfession": 7649,
      "ĠNature": 7650,
      "Ġmocking": 7651,
      "Ġmockery": 7652,
      "Ġforest": 7653,
      "Ġdivided": 7654,
      "Ġdivines": 7655,
      "Ġdivision": 7656,
      "Ġcarries": 7657,
      "Ġposterity": 7658,
      "Ġcounsels": 7659,
      "Command": 7660,
      "Commit": 7661,
      "Ġterrible": 7662,
      "Ġminstrel": 7663,
      "Ġinconstant": 7664,
      "Ġrecover": 7665,
      "Ġresolute": 7666,
      "nowledge": 7667,
      "Ġharmless": 7668,
      "ĠHector": 7669,
      "Ġagreed": 7670,
      "Ġwhipt": 7671,
      "Ġdishon": 7672,
      "Ġdisting": 7673,
      "Ġdisturb": 7674,
      "Ġdistressed": 7675,
      "Ġtribune": 7676,
      "Ġtribute": 7677,
      "Ġdraws": 7678,
      "Ġactor": 7679,
      "Ġstirs": 7680,
      "Ġstirring": 7681,
      "Ġbreathes": 7682,
      "Ġclosely": 7683,
      "Ġforgiveness": 7684,
      "Ġsufferance": 7685,
      "Ġskulls": 7686,
      "Ġsigns": 7687,
      "Ġwisest": 7688,
      "Ġregiment": 7689,
      "Ġpoisonous": 7690,
      "Ġcheerfully": 7691,
      "shepherd": 7692,
      "Ġtax": 7693,
      "Ġdireful": 7694,
      "Ġpays": 7695,
      "Ġsuccor": 7696,
      "Ġblessings": 7697,
      "Ġbleed": 7698,
      "Ġbleeds": 7699,
      "Ġinterchange": 7700,
      "Ġembass": 7701,
      "Ġmalign": 7702,
      "Ġhurried": 7703,
      "Ġchamberlain": 7704,
      "Ġcowardice": 7705,
      "Ġlimits": 7706,
      "Ġscorns": 7707,
      "Ġwitnesses": 7708,
      "Ġbroad": 7709,
      "Ġcreated": 7710,
      "Ġcreatures": 7711,
      "Ġcaparison": 7712,
      "ĠChristopher": 7713,
      "Ġidly": 7714,
      "Ġhideous": 7715,
      "Ġbeastly": 7716,
      "Ġrebel": 7717,
      "Ġrebuke": 7718,
      "Ġscarlet": 7719,
      "Ġsecrets": 7720,
      "Ġfills": 7721,
      "Ġstrumpet": 7722,
      "Ġpuppet": 7723,
      "Ġinjurious": 7724,
      "Ġinjuries": 7725,
      "Ġinsulting": 7726,
      "Ġinnocence": 7727,
      "Ġadmit": 7728,
      "Ġadmir": 7729,
      "Ġadmitted": 7730,
      "Ġfamish": 7731,
      "Ġgovernor": 7732,
      "Enough": 7733,
      "Proud": 7734,
      "Ġscholar": 7735,
      "Ġmutiny": 7736,
      "Ġlustful": 7737,
      "Ġthreats": 7738,
      "Ġindiffe": 7739,
      "Ġindirect": 7740,
      "Ġsolely": 7741,
      "Ġgrandfather": 7742,
      "Ġsafer": 7743,
      "Ġsentenced": 7744,
      "Ġdrunkard": 7745,
      "Belike": 7746,
      "Heart": 7747,
      "Measure": 7748,
      "Meantime": 7749,
      "piring": 7750,
      "Ġmounting": 7751,
      "Ġfeat": 7752,
      "Ġcaptive": 7753,
      "ĠAntonio": 7754,
      "Ġcontrad": 7755,
      "Ġdegrees": 7756,
      "Ġdemands": 7757,
      "Ġremedies": 7758,
      "Ġunderstanding": 7759,
      "Ġgreetings": 7760,
      "Ġtriumphs": 7761,
      "Ġfarthest": 7762,
      "Ġfaintly": 7763,
      "Ġdwells": 7764,
      "Ġthroats": 7765,
      "Ġhunger": 7766,
      "Ġgait": 7767,
      "Ġgaol": 7768,
      "Ġgape": 7769,
      "Ġgaoler": 7770,
      "Ġgentler": 7771,
      "Ġchastity": 7772,
      "Ġchastisement": 7773,
      "Ġmiseries": 7774,
      "Ġextremest": 7775,
      "Ġscarcely": 7776,
      "whelm": 7777,
      "Ġfirmly": 7778,
      "Ġholid": 7779,
      "Ġinclination": 7780,
      "Ġrelig": 7781,
      "Ġunborn": 7782,
      "Ġbootless": 7783,
      "Ġconditions": 7784,
      "Ġschoolmaster": 7785,
      "Ġfruitful": 7786,
      "Ġbald": 7787,
      "Ġbachelor": 7788,
      "Ġfeeding": 7789,
      "Ġstooping": 7790,
      "Ġunlawful": 7791,
      "ĠAlas": 7792,
      "therefore": 7793,
      "Ġimportune": 7794,
      "Ġprophecy": 7795,
      "portion": 7796,
      "Ġdecay": 7797,
      "Ġknightly": 7798,
      "Ġknighthood": 7799,
      "Ġshrink": 7800,
      "Ġroundly": 7801,
      "Ġfrighted": 7802,
      "Ġassistance": 7803,
      "Ġdelights": 7804,
      "Ġutterance": 7805,
      "actors": 7806,
      "Ġcreate": 7807,
      "Ġlouder": 7808,
      "Ġstarve": 7809,
      "Ġjealousies": 7810,
      "Ġrascals": 7811,
      "Ġtreachery": 7812,
      "Ġerror": 7813,
      "Ġcalumny": 7814,
      "Ġphysician": 7815,
      "Ġweighty": 7816,
      "Ġsupreme": 7817,
      "runes": 7818,
      "Ġpursued": 7819,
      "Repent": 7820,
      "Shame": 7821,
      "paration": 7822,
      "Ġwolves": 7823,
      "Ġwonders": 7824,
      "Ġbaseness": 7825,
      "Ġbudge": 7826,
      "Ġdiadem": 7827,
      "Ġbeware": 7828,
      "Ġrewards": 7829,
      "Ġpronounced": 7830,
      "Ġambition": 7831,
      "Ġargos": 7832,
      "ĠFlore": 7833,
      "ĠFloriz": 7834,
      "Ġcracking": 7835,
      "Ġpenitence": 7836,
      "Ġpublicly": 7837,
      "Arm": 7838,
      "Arise": 7839,
      "doing": 7840,
      "scap": 7841,
      "Ġmagic": 7842,
      "Ġhazel": 7843,
      "Ġmerely": 7844,
      "ĠCalais": 7845,
      "ĠElizab": 7846,
      "Ġapprehens": 7847,
      "Ġgreyh": 7848,
      "Ġcholeric": 7849,
      "Consider": 7850,
      "glass": 7851,
      "Ġmillions": 7852,
      "regory": 7853,
      "Ġthorns": 7854,
      "Ġbefal": 7855,
      "Ġbefits": 7856,
      "Ġnobler": 7857,
      "ĠSTANLEY": 7858,
      "Ġworthily": 7859,
      "Ġadvertised": 7860,
      "Ġperjury": 7861,
      "Ġwitchcraft": 7862,
      "Ġbrawl": 7863,
      "Ġbrawling": 7864,
      "Ġachieve": 7865,
      "Ġachieved": 7866,
      "Ġsyll": 7867,
      "Ġwinged": 7868,
      "Ġfunction": 7869,
      "Ġhorror": 7870,
      "Ġforsake": 7871,
      "Ġevents": 7872,
      "Ġdissemble": 7873,
      "Ġclimb": 7874,
      "ĠDeath": 7875,
      "Ġrestraint": 7876,
      "Ġafflict": 7877,
      "ĠAntiates": 7878,
      "Ġcircumstances": 7879,
      "Condemn": 7880,
      "Knock": 7881,
      "Small": 7882,
      "mongst": 7883,
      "Ġtimeless": 7884,
      "Ġwidows": 7885,
      "Ġnapkin": 7886,
      "Ġdebase": 7887,
      "Ġsuperfl": 7888,
      "Ġsplit": 7889,
      "Ġvillany": 7890,
      "Ġvolume": 7891,
      "Ġshriek": 7892,
      "Ġdispleasure": 7893,
      "Ġdisguised": 7894,
      "Ġscolding": 7895,
      "Ġcouncil": 7896,
      "Ġcouncils": 7897,
      "Ġcurtain": 7898,
      "Amongst": 7899,
      "Between": 7900,
      "Betwixt": 7901,
      "Pursu": 7902,
      "Seize": 7903,
      "URREY": 7904,
      "Ġbaggage": 7905,
      "Ġhomage": 7906,
      "Ġhigher": 7907,
      "Ġpedlar": 7908,
      "Ġhaughty": 7909,
      "ĠGreece": 7910,
      "ĠScotland": 7911,
      "ĠSpeak": 7912,
      "Ġunfeigned": 7913,
      "Ġappeared": 7914,
      "Ġconsorted": 7915,
      "Ġbankrupt": 7916,
      "Ġdragon": 7917,
      "Ġtransported": 7918,
      "Evermore": 7919,
      "England": 7920,
      "Ġsaucy": 7921,
      "Ġmourning": 7922,
      "Ġcentre": 7923,
      "Ġissued": 7924,
      "Ġsociety": 7925,
      "Ġanchor": 7926,
      "ĠEmilia": 7927,
      "Ġshelter": 7928,
      "ĠWelshmen": 7929,
      "Ġimperial": 7930,
      "Ġlecture": 7931,
      "Ġrestored": 7932,
      "Ġsmiling": 7933,
      "Ġcounsellor": 7934,
      "Ġinferior": 7935,
      "Ġdivorce": 7936,
      "Ġtroublous": 7937,
      "Ġexpedition": 7938,
      "Ġinsolence": 7939,
      "Dispatch": 7940,
      "Ġconcluded": 7941,
      "Ġtestimony": 7942,
      "Ġreckoning": 7943,
      "Affection": 7944,
      "Touching": 7945,
      "posterous": 7946,
      "Ġsands": 7947,
      "Ġcordial": 7948,
      "Ġpestilence": 7949,
      "Ġpupil": 7950,
      "Ġugly": 7951,
      "Ġvulgar": 7952,
      "Ġvassal": 7953,
      "Ġamazement": 7954,
      "Ġcanopy": 7955,
      "Ġrancour": 7956,
      "Ġpocket": 7957,
      "Ġdisobed": 7958,
      "Ġplebeians": 7959,
      "Ġnightingale": 7960,
      "Ġwhistle": 7961,
      "Ġharlot": 7962,
      "Ġmerrily": 7963,
      "Ġterritories": 7964,
      "Ġpuissant": 7965,
      "Ġmedicine": 7966,
      "BONA": 7967,
      "EMILIA": 7968,
      "Gainst": 7969,
      "Grandam": 7970,
      "Harp": 7971,
      "NATHANIEL": 7972,
      "Urge": 7973,
      "iquity": 7974,
      "Ġtonight": 7975,
      "Ġsinew": 7976,
      "Ġwestern": 7977,
      "Ġfemale": 7978,
      "Ġcuckold": 7979,
      "Ġlungs": 7980,
      "Ġobtain": 7981,
      "Ġnotwithstanding": 7982,
      "Ġeloqu": 7983,
      "Ġsolicit": 7984,
      "estival": 7985,
      "Ġvineyard": 7986,
      "ĠLodowick": 7987,
      "ĠBrakenbury": 7988,
      "ĠHercules": 7989,
      "Ġjocund": 7990,
      "ĠPatrician": 7991,
      "ĠPhaethon": 7992,
      "ĠPhoebus": 7993,
      "Ġprecedent": 7994,
      "Ġprerogative": 7995,
      "ĠFrancis": 7996,
      "Ġperemptory": 7997,
      "Ġunderneath": 7998,
      "Ġmerriment": 7999
    },
    "merges": [
      [
        "Ġ",
        "t"
      ],
      [
        "h",
        "e"
      ],
      [
        "Ġ",
        "a"
      ],
      [
        "o",
        "u"
      ],
      [
        "Ġ",
        "s"
      ],
      [
        "Ġ",
        "m"
      ],
      [
        "i",
        "n"
      ],
      [
        "Ġ",
        "w"
      ],
      [
        "r",
        "e"
      ],
      [
        "h",
        "a"
      ],
      [
        "n",
        "d"
      ],
      [
        "Ġt",
        "he"
      ],
      [
        "Ġ",
        "b"
      ],
      [
        "i",
        "s"
      ],
      [
        "o",
        "r"
      ],
      [
        "Ġ",
        "f"
      ],
      [
        "e",
        "r"
      ],
      [
        "l",
        "l"
      ],
      [
        "i",
        "t"
      ],
      [
        "o",
        "n"
      ],
      [
        "Ġ",
        "d"
      ],
      [
        "Ġ",
        "c"
      ],
      [
        "e",
        "s"
      ],
      [
        "e",
        "n"
      ],
      [
        "Ġ",
        "n"
      ],
      [
        "Ġ",
        "l"
      ],
      [
        "Ġ",
        "y"
      ],
      [
        "Ġt",
        "h"
      ],
      [
        "a",
        "r"
      ],
      [
        "Ġ",
        "h"
      ],
      [
        "Ġ",
        "o"
      ],
      [
        "Ġt",
        "o"
      ],
      [
        "Ġy",
        "ou"
      ],
      [
        "Ġ",
        "p"
      ],
      [
        "ha",
        "t"
      ],
      [
        "Ġ",
        "I"
      ],
      [
        "Ġ",
        "he"
      ],
      [
        "v",
        "e"
      ],
      [
        "o",
        "t"
      ],
      [
        "s",
        "t"
      ],
      [
        "Ġa",
        "nd"
      ],
      [
        "o",
        "w"
      ],
      [
        "in",
        "g"
      ],
      [
        "a",
        "n"
      ],
      [
        "Ġo",
        "f"
      ],
      [
        "o",
        "m"
      ],
      [
        "Ġ",
        "g"
      ],
      [
        "a",
        "t"
      ],
      [
        "Ġb",
        "e"
      ],
      [
        "s",
        "e"
      ],
      [
        "Ġm",
        "y"
      ],
      [
        "Ġ",
        "in"
      ],
      [
        "c",
        "e"
      ],
      [
        "Ġ",
        "ha"
      ],
      [
        "l",
        "e"
      ],
      [
        "a",
        "y"
      ],
      [
        "l",
        "d"
      ],
      [
        "i",
        "r"
      ],
      [
        "e",
        "t"
      ],
      [
        "e",
        "d"
      ],
      [
        "u",
        "t"
      ],
      [
        "Ġm",
        "e"
      ],
      [
        "i",
        "m"
      ],
      [
        "it",
        "h"
      ],
      [
        "'",
        "s"
      ],
      [
        "Ġn",
        "ot"
      ],
      [
        "c",
        "h"
      ],
      [
        "Ġt",
        "hat"
      ],
      [
        "Ġ",
        "is"
      ],
      [
        "g",
        "h"
      ],
      [
        "A",
        "nd"
      ],
      [
        "Ġf",
        "or"
      ],
      [
        "k",
        "e"
      ],
      [
        "Ġ",
        "u"
      ],
      [
        "ou",
        "r"
      ],
      [
        "Ġw",
        "e"
      ],
      [
        "o",
        "o"
      ],
      [
        "i",
        "ll"
      ],
      [
        "Ġ",
        "e"
      ],
      [
        "he",
        "r"
      ],
      [
        "Ġw",
        "ith"
      ],
      [
        "en",
        "t"
      ],
      [
        "Ġ",
        "it"
      ],
      [
        "Ġyou",
        "r"
      ],
      [
        "a",
        "d"
      ],
      [
        "r",
        "i"
      ],
      [
        "Ġth",
        "ou"
      ],
      [
        "Ġs",
        "t"
      ],
      [
        "'",
        "d"
      ],
      [
        "Ġ",
        "k"
      ],
      [
        "om",
        "e"
      ],
      [
        "Ġh",
        "is"
      ],
      [
        "gh",
        "t"
      ],
      [
        "E",
        "N"
      ],
      [
        "or",
        "d"
      ],
      [
        "i",
        "d"
      ],
      [
        "T",
        "he"
      ],
      [
        "a",
        "s"
      ],
      [
        "Ġ",
        "re"
      ],
      [
        "Ġha",
        "ve"
      ],
      [
        "I",
        "N"
      ],
      [
        "l",
        "y"
      ],
      [
        "r",
        "a"
      ],
      [
        "Ġl",
        "i"
      ],
      [
        "Ġh",
        "im"
      ],
      [
        "u",
        "r"
      ],
      [
        "Ġth",
        "is"
      ],
      [
        "a",
        "l"
      ],
      [
        "I",
        "O"
      ],
      [
        "Ġs",
        "o"
      ],
      [
        "Ġa",
        "s"
      ],
      [
        "Ġd",
        "e"
      ],
      [
        "Ġ",
        "on"
      ],
      [
        "o",
        "re"
      ],
      [
        "r",
        "o"
      ],
      [
        "A",
        "R"
      ],
      [
        "h",
        "i"
      ],
      [
        "ou",
        "ld"
      ],
      [
        "oo",
        "d"
      ],
      [
        "c",
        "k"
      ],
      [
        "a",
        "in"
      ],
      [
        "v",
        "er"
      ],
      [
        "es",
        "t"
      ],
      [
        "Ġth",
        "y"
      ],
      [
        "Ġs",
        "ha"
      ],
      [
        "es",
        "s"
      ],
      [
        "e",
        "a"
      ],
      [
        "Ġd",
        "o"
      ],
      [
        "Ġw",
        "ill"
      ],
      [
        "a",
        "m"
      ],
      [
        "Ġn",
        "o"
      ],
      [
        "Ġb",
        "ut"
      ],
      [
        "u",
        "s"
      ],
      [
        "a",
        "nd"
      ],
      [
        "U",
        "S"
      ],
      [
        "i",
        "f"
      ],
      [
        "Ġs",
        "e"
      ],
      [
        "g",
        "e"
      ],
      [
        "T",
        "h"
      ],
      [
        "Ġa",
        "ll"
      ],
      [
        "a",
        "ke"
      ],
      [
        "Ġs",
        "u"
      ],
      [
        "T",
        "o"
      ],
      [
        "Ġhe",
        "r"
      ],
      [
        "r",
        "u"
      ],
      [
        "i",
        "on"
      ],
      [
        "t",
        "h"
      ],
      [
        "Ġa",
        "n"
      ],
      [
        "t",
        "er"
      ],
      [
        "ar",
        "d"
      ],
      [
        "Ġl",
        "o"
      ],
      [
        "ha",
        "n"
      ],
      [
        "e",
        "ll"
      ],
      [
        "e",
        "ar"
      ],
      [
        "Ġs",
        "p"
      ],
      [
        "Ġthe",
        "e"
      ],
      [
        "Ġ",
        "our"
      ],
      [
        "Ġf",
        "a"
      ],
      [
        "Ġsha",
        "ll"
      ],
      [
        "Ġb",
        "y"
      ],
      [
        "U",
        "C"
      ],
      [
        "i",
        "l"
      ],
      [
        "Ġa",
        "re"
      ],
      [
        "IN",
        "G"
      ],
      [
        "Ġ",
        "C"
      ],
      [
        "r",
        "om"
      ],
      [
        "Ġn",
        "e"
      ],
      [
        "h",
        "o"
      ],
      [
        "Ġk",
        "n"
      ],
      [
        "A",
        "N"
      ],
      [
        "Ġ",
        "R"
      ],
      [
        "T",
        "hat"
      ],
      [
        "Ġ",
        "v"
      ],
      [
        "E",
        "R"
      ],
      [
        "O",
        "R"
      ],
      [
        "a",
        "st"
      ],
      [
        "c",
        "t"
      ],
      [
        "ou",
        "s"
      ],
      [
        "Ġw",
        "hat"
      ],
      [
        "i",
        "ght"
      ],
      [
        "Ġs",
        "h"
      ],
      [
        "u",
        "l"
      ],
      [
        "E",
        "T"
      ],
      [
        "Ġ",
        "'"
      ],
      [
        "an",
        "t"
      ],
      [
        "E",
        "S"
      ],
      [
        "Ġu",
        "p"
      ],
      [
        "se",
        "l"
      ],
      [
        "q",
        "u"
      ],
      [
        "B",
        "ut"
      ],
      [
        "ar",
        "t"
      ],
      [
        "Ġg",
        "ood"
      ],
      [
        "r",
        "ow"
      ],
      [
        "in",
        "e"
      ],
      [
        "at",
        "h"
      ],
      [
        "Ġl",
        "ord"
      ],
      [
        "hi",
        "ch"
      ],
      [
        "n",
        "t"
      ],
      [
        "u",
        "st"
      ],
      [
        "'",
        "ll"
      ],
      [
        "on",
        "e"
      ],
      [
        "Ġp",
        "r"
      ],
      [
        "Ġc",
        "om"
      ],
      [
        "Ġa",
        "t"
      ],
      [
        "Ġm",
        "an"
      ],
      [
        "W",
        "hat"
      ],
      [
        "Ġ",
        "M"
      ],
      [
        "Ġw",
        "he"
      ],
      [
        "Ġ",
        "E"
      ],
      [
        "K",
        "ING"
      ],
      [
        "Ġa",
        "m"
      ],
      [
        "e",
        "nd"
      ],
      [
        "i",
        "c"
      ],
      [
        "Ġc",
        "on"
      ],
      [
        "b",
        "le"
      ],
      [
        "r",
        "y"
      ],
      [
        "on",
        "g"
      ],
      [
        "i",
        "e"
      ],
      [
        "i",
        "ve"
      ],
      [
        "Ġb",
        "l"
      ],
      [
        "Ġf",
        "rom"
      ],
      [
        "v",
        "en"
      ],
      [
        "Ġ",
        "G"
      ],
      [
        "F",
        "or"
      ],
      [
        "Ġs",
        "he"
      ],
      [
        "e",
        "m"
      ],
      [
        "Ġg",
        "o"
      ],
      [
        "a",
        "re"
      ],
      [
        "Ġm",
        "ore"
      ],
      [
        "I",
        "C"
      ],
      [
        "ou",
        "t"
      ],
      [
        "Ġthe",
        "m"
      ],
      [
        "a",
        "u"
      ],
      [
        "Ġw",
        "as"
      ],
      [
        "ot",
        "h"
      ],
      [
        "ot",
        "her"
      ],
      [
        "H",
        "e"
      ],
      [
        "Ġs",
        "ir"
      ],
      [
        "o",
        "l"
      ],
      [
        "Ġn",
        "ow"
      ],
      [
        "Ġ",
        "L"
      ],
      [
        "Ġ",
        "hat"
      ],
      [
        "o",
        "st"
      ],
      [
        "Ġ",
        "if"
      ],
      [
        "L",
        "O"
      ],
      [
        "in",
        "d"
      ],
      [
        "Ġthe",
        "re"
      ],
      [
        "Ġw",
        "ould"
      ],
      [
        "Ġkn",
        "ow"
      ],
      [
        "Ġc",
        "an"
      ],
      [
        "er",
        "s"
      ],
      [
        "I",
        "US"
      ],
      [
        "e",
        "p"
      ],
      [
        "sel",
        "f"
      ],
      [
        "AR",
        "D"
      ],
      [
        "at",
        "her"
      ],
      [
        "f",
        "e"
      ],
      [
        "o",
        "nd"
      ],
      [
        "re",
        "s"
      ],
      [
        "at",
        "e"
      ],
      [
        "Ġs",
        "ay"
      ],
      [
        "Ġhe",
        "re"
      ],
      [
        "Ġlo",
        "ve"
      ],
      [
        "Ġs",
        "w"
      ],
      [
        "Ġthe",
        "ir"
      ],
      [
        "Ġb",
        "r"
      ],
      [
        "p",
        "p"
      ],
      [
        "Ġ",
        "or"
      ],
      [
        "-",
        "-"
      ],
      [
        "a",
        "ll"
      ],
      [
        "Ġ",
        "S"
      ],
      [
        "Ġt",
        "han"
      ],
      [
        "Ġthe",
        "n"
      ],
      [
        "Ġk",
        "ing"
      ],
      [
        "Ġu",
        "s"
      ],
      [
        "Ġ",
        "O"
      ],
      [
        "Ġ",
        "B"
      ],
      [
        "Ġthe",
        "y"
      ],
      [
        "Ġa",
        "r"
      ],
      [
        "o",
        "d"
      ],
      [
        "M",
        "y"
      ],
      [
        "Ġl",
        "et"
      ],
      [
        "Ġu",
        "n"
      ],
      [
        "i",
        "g"
      ],
      [
        "Ġw",
        "or"
      ],
      [
        "u",
        "re"
      ],
      [
        "in",
        "k"
      ],
      [
        "Ġ",
        "H"
      ],
      [
        "or",
        "t"
      ],
      [
        "h",
        "y"
      ],
      [
        "Ġ",
        "V"
      ],
      [
        "am",
        "e"
      ],
      [
        "f",
        "ore"
      ],
      [
        "A",
        "s"
      ],
      [
        "Ġm",
        "ay"
      ],
      [
        "e",
        "l"
      ],
      [
        "Ġ",
        "qu"
      ],
      [
        "Ġc",
        "ome"
      ],
      [
        "oo",
        "k"
      ],
      [
        "W",
        "he"
      ],
      [
        "is",
        "h"
      ],
      [
        "L",
        "I"
      ],
      [
        "Ġwe",
        "ll"
      ],
      [
        "K",
        "E"
      ],
      [
        "v",
        "es"
      ],
      [
        "Ġ",
        "j"
      ],
      [
        "Ġon",
        "e"
      ],
      [
        "Ġhat",
        "h"
      ],
      [
        "ir",
        "st"
      ],
      [
        "Y",
        "ou"
      ],
      [
        "Ġm",
        "ake"
      ],
      [
        "re",
        "at"
      ],
      [
        "a",
        "k"
      ],
      [
        "g",
        "ain"
      ],
      [
        "Ġm",
        "ust"
      ],
      [
        "ou",
        "nd"
      ],
      [
        "n",
        "g"
      ],
      [
        "Ġg",
        "ra"
      ],
      [
        "Ġwe",
        "re"
      ],
      [
        "Ġh",
        "o"
      ],
      [
        "c",
        "i"
      ],
      [
        "Ġse",
        "e"
      ],
      [
        "Ġli",
        "ke"
      ],
      [
        "u",
        "e"
      ],
      [
        "ea",
        "k"
      ],
      [
        "T",
        "IO"
      ],
      [
        "Ġsh",
        "ould"
      ],
      [
        "it",
        "y"
      ],
      [
        "Ġp",
        "ro"
      ],
      [
        "Ġ",
        "P"
      ],
      [
        "Ġs",
        "a"
      ],
      [
        "Ġm",
        "ad"
      ],
      [
        "u",
        "m"
      ],
      [
        "Ġp",
        "l"
      ],
      [
        "Ġf",
        "ather"
      ],
      [
        "R",
        "O"
      ],
      [
        "A",
        "U"
      ],
      [
        "Ġha",
        "d"
      ],
      [
        "Ġd",
        "id"
      ],
      [
        "p",
        "e"
      ],
      [
        "im",
        "e"
      ],
      [
        "Ġup",
        "on"
      ],
      [
        "i",
        "ce"
      ],
      [
        "O",
        "N"
      ],
      [
        "Ġto",
        "o"
      ],
      [
        "en",
        "ce"
      ],
      [
        "Ġ",
        "W"
      ],
      [
        "w",
        "ard"
      ],
      [
        "is",
        "t"
      ],
      [
        "Ġde",
        "ath"
      ],
      [
        "ow",
        "n"
      ],
      [
        "m",
        "an"
      ],
      [
        "o",
        "se"
      ],
      [
        "Ġ",
        "en"
      ],
      [
        "u",
        "n"
      ],
      [
        "I",
        "S"
      ],
      [
        "f",
        "ul"
      ],
      [
        "n",
        "ce"
      ],
      [
        "Ġ",
        "r"
      ],
      [
        "Ġp",
        "o"
      ],
      [
        "Ġsp",
        "eak"
      ],
      [
        "d",
        "e"
      ],
      [
        "ent",
        "le"
      ],
      [
        "i",
        "o"
      ],
      [
        "Ġ",
        "out"
      ],
      [
        "p",
        "t"
      ],
      [
        "Ġw",
        "hich"
      ],
      [
        "IC",
        "H"
      ],
      [
        "Ġf",
        "ri"
      ],
      [
        "O",
        "L"
      ],
      [
        "D",
        "U"
      ],
      [
        "Ġa",
        "gain"
      ],
      [
        "DU",
        "KE"
      ],
      [
        "Ġh",
        "ow"
      ],
      [
        "E",
        "L"
      ],
      [
        "i",
        "ck"
      ],
      [
        "Ġ",
        "A"
      ],
      [
        "Ġt",
        "ru"
      ],
      [
        "Ġhe",
        "art"
      ],
      [
        "Ġy",
        "et"
      ],
      [
        "Ġha",
        "nd"
      ],
      [
        "C",
        "A"
      ],
      [
        "Th",
        "ou"
      ],
      [
        "ver",
        "y"
      ],
      [
        "ICH",
        "ARD"
      ],
      [
        "EN",
        "TIO"
      ],
      [
        "W",
        "ith"
      ],
      [
        "ig",
        "n"
      ],
      [
        "Ġs",
        "ome"
      ],
      [
        "an",
        "ce"
      ],
      [
        "Ġw",
        "ho"
      ],
      [
        "W",
        "hich"
      ],
      [
        "I",
        "f"
      ],
      [
        "Ġwhe",
        "n"
      ],
      [
        "i",
        "es"
      ],
      [
        "Ġm",
        "ar"
      ],
      [
        "i",
        "re"
      ],
      [
        "Ġm",
        "ine"
      ],
      [
        "Ġh",
        "on"
      ],
      [
        "ha",
        "r"
      ],
      [
        "or",
        "n"
      ],
      [
        "Ġof",
        "f"
      ],
      [
        "in",
        "ce"
      ],
      [
        "IN",
        "C"
      ],
      [
        "I",
        "n"
      ],
      [
        "a",
        "ck"
      ],
      [
        "Ġ",
        "Y"
      ],
      [
        "Ġs",
        "on"
      ],
      [
        "Ġd",
        "is"
      ],
      [
        "Ġa",
        "l"
      ],
      [
        "'",
        "t"
      ],
      [
        "W",
        "e"
      ],
      [
        "u",
        "ch"
      ],
      [
        "w",
        "n"
      ],
      [
        "Ġhe",
        "a"
      ],
      [
        "F",
        "irst"
      ],
      [
        "o",
        "y"
      ],
      [
        "Ġt",
        "ime"
      ],
      [
        "Ġhe",
        "ar"
      ],
      [
        "A",
        "B"
      ],
      [
        "e",
        "c"
      ],
      [
        "Ġsu",
        "ch"
      ],
      [
        "n",
        "ess"
      ],
      [
        "L",
        "A"
      ],
      [
        "Ġbr",
        "other"
      ],
      [
        "O",
        "f"
      ],
      [
        "Ġbl",
        "ood"
      ],
      [
        "it",
        "her"
      ],
      [
        "Ġa",
        "b"
      ],
      [
        "U",
        "E"
      ],
      [
        "W",
        "hy"
      ],
      [
        "Ġthe",
        "se"
      ],
      [
        "N",
        "o"
      ],
      [
        "Ġg",
        "ive"
      ],
      [
        "Ġf",
        "o"
      ],
      [
        "Ġd",
        "ay"
      ],
      [
        "ĠI",
        "I"
      ],
      [
        "Ġe",
        "ar"
      ],
      [
        "ĠR",
        "ICHARD"
      ],
      [
        "T",
        "ER"
      ],
      [
        "Ġ",
        "ro"
      ],
      [
        "is",
        "e"
      ],
      [
        "Ġe",
        "x"
      ],
      [
        "Ġli",
        "fe"
      ],
      [
        "Th",
        "is"
      ],
      [
        "e",
        "et"
      ],
      [
        "Ġt",
        "ell"
      ],
      [
        "S",
        "o"
      ],
      [
        "Ġl",
        "ook"
      ],
      [
        "Ġth",
        "ink"
      ],
      [
        "UC",
        "H"
      ],
      [
        "ou",
        "l"
      ],
      [
        "Ġw",
        "ord"
      ],
      [
        "Ġe",
        "y"
      ],
      [
        "Ġwhe",
        "re"
      ],
      [
        "a",
        "g"
      ],
      [
        "a",
        "ge"
      ],
      [
        "e",
        "en"
      ],
      [
        "t",
        "her"
      ],
      [
        "G",
        "LO"
      ],
      [
        "Ġt",
        "ake"
      ],
      [
        "UC",
        "ES"
      ],
      [
        "Ġfri",
        "end"
      ],
      [
        "GLO",
        "UCES"
      ],
      [
        "GLOUCES",
        "TER"
      ],
      [
        "e",
        "f"
      ],
      [
        "er",
        "v"
      ],
      [
        "ad",
        "y"
      ],
      [
        "row",
        "n"
      ],
      [
        "Ġd",
        "es"
      ],
      [
        "ing",
        "s"
      ],
      [
        "a",
        "ve"
      ],
      [
        "n",
        "ot"
      ],
      [
        "Ġg",
        "entle"
      ],
      [
        "ur",
        "se"
      ],
      [
        "H",
        "ow"
      ],
      [
        "R",
        "Y"
      ],
      [
        "Ġ",
        "ri"
      ],
      [
        "a",
        "se"
      ],
      [
        "Q",
        "UE"
      ],
      [
        "w",
        "ay"
      ],
      [
        "INC",
        "ENTIO"
      ],
      [
        "QUE",
        "EN"
      ],
      [
        "Ġl",
        "ea"
      ],
      [
        "t",
        "is"
      ],
      [
        "ĠO",
        "F"
      ],
      [
        "Ġar",
        "t"
      ],
      [
        "Ġm",
        "ost"
      ],
      [
        "Whe",
        "re"
      ],
      [
        "Ġhon",
        "our"
      ],
      [
        "L",
        "AN"
      ],
      [
        "Ġm",
        "uch"
      ],
      [
        "Ġs",
        "l"
      ],
      [
        "Ġw",
        "ar"
      ],
      [
        "Ġf",
        "l"
      ],
      [
        "ur",
        "n"
      ],
      [
        "Ġmad",
        "e"
      ],
      [
        "m",
        "ent"
      ],
      [
        "N",
        "ow"
      ],
      [
        "Ġha",
        "st"
      ],
      [
        "Ġt",
        "w"
      ],
      [
        "Ġf",
        "ear"
      ],
      [
        "Ġ",
        "T"
      ],
      [
        "Ġbe",
        "t"
      ],
      [
        "EN",
        "RY"
      ],
      [
        "au",
        "ght"
      ],
      [
        "I",
        "s"
      ],
      [
        "L",
        "E"
      ],
      [
        "b",
        "er"
      ],
      [
        "f",
        "f"
      ],
      [
        "ĠG",
        "od"
      ],
      [
        "ou",
        "gh"
      ],
      [
        "ve",
        "d"
      ],
      [
        "Ġb",
        "re"
      ],
      [
        "c",
        "c"
      ],
      [
        "ow",
        "er"
      ],
      [
        "Ġne",
        "ver"
      ],
      [
        "ĠV",
        "INCENTIO"
      ],
      [
        "B",
        "e"
      ],
      [
        "a",
        "p"
      ],
      [
        "i",
        "gh"
      ],
      [
        "Ġ",
        "K"
      ],
      [
        "Ġg",
        "reat"
      ],
      [
        "Ġfa",
        "ir"
      ],
      [
        "W",
        "ho"
      ],
      [
        "e",
        "e"
      ],
      [
        "t",
        "le"
      ],
      [
        "Ġm",
        "en"
      ],
      [
        "or",
        "row"
      ],
      [
        "Ġc",
        "ou"
      ],
      [
        "Ġne",
        "w"
      ],
      [
        "ĠR",
        "ome"
      ],
      [
        "ast",
        "er"
      ],
      [
        "u",
        "ke"
      ],
      [
        "i",
        "z"
      ],
      [
        "o",
        "ld"
      ],
      [
        "OR",
        "K"
      ],
      [
        "Ġp",
        "art"
      ],
      [
        "at",
        "ion"
      ],
      [
        "IN",
        "IUS"
      ],
      [
        "s",
        "s"
      ],
      [
        "re",
        "e"
      ],
      [
        "id",
        "e"
      ],
      [
        "O",
        "r"
      ],
      [
        "Ġc",
        "all"
      ],
      [
        "p",
        "le"
      ],
      [
        "Ġan",
        "y"
      ],
      [
        "Ġhea",
        "ven"
      ],
      [
        "Ġa",
        "d"
      ],
      [
        "Ġcom",
        "m"
      ],
      [
        "I",
        "t"
      ],
      [
        "Y",
        "our"
      ],
      [
        "Ġst",
        "and"
      ],
      [
        "Ġcan",
        "not"
      ],
      [
        "Ġtru",
        "e"
      ],
      [
        "D",
        "W"
      ],
      [
        "Ġn",
        "ame"
      ],
      [
        "Ġbe",
        "en"
      ],
      [
        "ear",
        "s"
      ],
      [
        "DW",
        "ARD"
      ],
      [
        "Ġc",
        "l"
      ],
      [
        "Ġp",
        "re"
      ],
      [
        "Ġsw",
        "eet"
      ],
      [
        ",",
        "--"
      ],
      [
        "Ġd",
        "oth"
      ],
      [
        "Ġpr",
        "ay"
      ],
      [
        "h",
        "ing"
      ],
      [
        "P",
        "ET"
      ],
      [
        "U",
        "M"
      ],
      [
        "Ġno",
        "ble"
      ],
      [
        "L",
        "UC"
      ],
      [
        "M",
        "EN"
      ],
      [
        "T",
        "H"
      ],
      [
        "Ġo",
        "wn"
      ],
      [
        "Ġp",
        "le"
      ],
      [
        "as",
        "s"
      ],
      [
        "Ġ",
        "D"
      ],
      [
        "ou",
        "se"
      ],
      [
        "Ġp",
        "er"
      ],
      [
        "A",
        "y"
      ],
      [
        "C",
        "ome"
      ],
      [
        "u",
        "ll"
      ],
      [
        "The",
        "re"
      ],
      [
        "Ġw",
        "r"
      ],
      [
        "Ġd",
        "one"
      ],
      [
        "if",
        "e"
      ],
      [
        "a",
        "w"
      ],
      [
        "Ġt",
        "r"
      ],
      [
        "Ġw",
        "ay"
      ],
      [
        "Ġo",
        "ther"
      ],
      [
        "Ġhe",
        "ad"
      ],
      [
        "Ġme",
        "an"
      ],
      [
        "l",
        "i"
      ],
      [
        "re",
        "d"
      ],
      [
        "Whe",
        "n"
      ],
      [
        "d",
        "ward"
      ],
      [
        "Ġn",
        "or"
      ],
      [
        "E",
        "O"
      ],
      [
        "M",
        "EO"
      ],
      [
        "Ġs",
        "c"
      ],
      [
        "Ġs",
        "oul"
      ],
      [
        "Ġp",
        "res"
      ],
      [
        "RO",
        "MEO"
      ],
      [
        "a",
        "ce"
      ],
      [
        "v",
        "ing"
      ],
      [
        "Ġn",
        "ight"
      ],
      [
        "Ġbe",
        "ar"
      ],
      [
        "EN",
        "IUS"
      ],
      [
        "ain",
        "t"
      ],
      [
        "ĠC",
        "l"
      ],
      [
        "Ġwor",
        "ld"
      ],
      [
        "MEN",
        "ENIUS"
      ],
      [
        "g",
        "er"
      ],
      [
        "Ġbe",
        "fore"
      ],
      [
        "au",
        "se"
      ],
      [
        "Ġb",
        "oth"
      ],
      [
        "Ġqu",
        "een"
      ],
      [
        "p",
        "er"
      ],
      [
        "The",
        "n"
      ],
      [
        "aught",
        "er"
      ],
      [
        "R",
        "UCH"
      ],
      [
        "o",
        "ck"
      ],
      [
        "Ġc",
        "hi"
      ],
      [
        "He",
        "re"
      ],
      [
        "PET",
        "RUCH"
      ],
      [
        "PETRUCH",
        "IO"
      ],
      [
        "O",
        "M"
      ],
      [
        "a",
        "ble"
      ],
      [
        "Ġ",
        "very"
      ],
      [
        "Ġde",
        "ad"
      ],
      [
        "T",
        "ES"
      ],
      [
        "B",
        "y"
      ],
      [
        "Ġ",
        "ra"
      ],
      [
        "it",
        "e"
      ],
      [
        "T",
        "han"
      ],
      [
        "t",
        "he"
      ],
      [
        "Ġ",
        "ke"
      ],
      [
        "a",
        "b"
      ],
      [
        "l",
        "es"
      ],
      [
        "Ġ",
        "F"
      ],
      [
        "Ġd",
        "own"
      ],
      [
[...]
